1111111111100110
1001110
1111111111101000
110001
101
11011
111
11001
1111111111101000
1111111111111101
1111111111111110
1111111111100100
1111111111111011
1111111111001111
1010
1000
1111111111010001
1111111111100010
110010
1111111111101100
1111111111101010
100111
1111111111100010
10100
101
1111111111111110
11
101001
110
11011
1111111111111111
1111111111000000
101000
1111111111100110
10101
1111111111111100
1111111111010011
1000
110110
1111111111110010
1111111111101011
1111111111101100
1111111111110110
110001
100010
11001
100010
100
1111111110110110
100000
111
1111111111101000
1010
1000011
101000
1111111111101000
1111111111111011
101001
1111111111110110
1111111111101000
11110
1
10001
1111111111110001
1111111111111101
1111111111111110
1111111111101110
1000
110
1111111110001110
1111111110010011
1101
1111111111011011
1010001
1111111110111010
1111111111010011
10010
10101
1111111111101111
100010
1111111111111110
1111111111110111
1111111111110111
11000
1111111111001000
1111111111011001
1111111111110101
10000
11010
101
1111111111110010
11110
1000010
100001110
100111101
101010100
110101
1111110111001111
1111110101100001
1111111010011011
1111111010100100
1101001
1111111111100111
1111111101010011
1000101
11101011
100010000
10111110
10100
101101
1111111111110111
1111111111110100
1111111111111100
1111111111110000
1111111111010110
1111111111011001
1111111111110000
10010101
11001001
110101
111110101
1001010111
101110110
1010110
10010100
1010111
100
1111110010110100
1111101110010111
1111110111011011
1111110100111000
1111111010011100
1111110110110111
1111110101100001
1111110111000011
1111111100000111
11010
1111111111101000
10111
101100
101001
1111111111110001
1111111111100110
1010
1111000
10100000
1111111100100010
1111110100101111
1111111100011111
10011000
1111110001000111
100000
1111111001000011
110101010
1100111011
11001110010
11011011
110101111
1111111100011111
110101100
1111111011110110
1111111000111000
1111110011001101
1111110100110011
10101111
11000101
1001101
1111111111110001
1111111111010110
1111111111010001
1111111111100101
11010
100000111
1111111010100100
1111110001100110
1111101111010110
1111110110111001
1111101101111101
1111100100000110
1110100
1111111110111011
101100111
1111111010011111
11000000
10100000
111100
1111111100001000
1111110111011100
1111111000101111
1111111000010100
1111110101001010
1111111001110101
1111111010111010
1111111101110000
1111111110011100
1011
101100
1111111111101010
111000
100110111
1000000
1111101110010111
1111101100001001
1111110010010001
1111101010100100
1111101000110111
1111100100100010
1111101101100010
1111110110011110
10010111
1111111100000011
10110111
1111110000110010
100111110
1111111100011000
1111111101001010
1111101101000011
1111101101110001
10101100
11101001
1111110110001110
1111111001111001
1111111101101111
1111111111010100
1111111111010011
1111111111110011
1110011
100110011
1111111010100010
1111110000110111
1111111000110100
1111101111100111
1111111110100010
1111111000100010
1111110111011111
1111100011110100
1111100000011100
1111110110111011
11101011
10110100101
1111101101101111
1111111010000101
1000011010
1111111000111011
1101111101
1111111110100011
1111110001001111
1111111011001110
1111100110100100
1111111101011110
1111111110110011
1001110
110110
1111111111110111
1111111110110001
101001100
1111111110111100
1111111000100100
1111111011110100
1111110110110100
111011
1111111110111101
1111111101011110
1111101011101111
1111101011101110
1111101101010110
1011111001
11010110101
1011011111
1101000101
11001101
1001000001
111110110
1111111110110111
1111111000010101
1111111111110110
1111101110001101
1111111001100011
1111100
1111111111101101
1111111111010010
10010
1111111111010101
1111111101110100
11001110
1111111110000000
1001011
1111101000
1000110
1111111001011011
1111101001001100
1111110111111000
1111101110101010
1111101010111110
1101111111
11010111011
11001110101
1100011111
100011110
11011100000
1110100001
10101111
1011111000
10011101011
1111111101110000
1111111101010100
1111111110111111
1111111111010111
100000
1001
10100
1100000
1111111101000111
10101101111
100001100111
11111110110
10010
11100010
1111111000001001
1111111100011111
1111111101011101
1001001101
100110110010
10001100000
11110100
110111010
1111111101011000
11101111001
100100000101
10100010011
100000011011
10011011101
10110101
1111111100001100
1111111101011110
1111111111101101
1000
1111111111111100
11100
1111111110001110
10011
11010100011
10010011011
1110101111
1111111001010110
1111101100001011
1111101110001111
1111111101110001
110100011
11011010010
11000111001
1100010000
1101011101
10000111001
11111000
1010001110
1000011001
1100101001
11001111101
10101001010
111111011
1111111110100110
0
100001
101000
0
1111111111100100
1111111110111010
1001010001
111000011
1100100
1111110111001011
101110110
11101
100100011
1011100001
11010000010
10110101000
100010010
10101001011
10011010010
10010111111
1111101011
1111111010110101
1101101101
1100011011
10100001011
1110000101
11100001
1111111101000001
1111111111010110
1111111111101000
101100
1111111111101011
1111111111100100
1111111111110110
10100111
11110010
1111101110011000
1111110001100010
10110110
111100001
1010100
11100110110
10111100100
11100000111
1100010000
1111111110110010
1010000000
1110110001
11010101011
1111111101111100
1001010111
1011000101
1111111011111001
1111111100010101
10010011
1111111111000000
1110
1111111111101010
11011
1111111111101110
1111111111000010
11110011
1000001110
1111111110000110
1111110111110101
1111101100110111
1111111101100001
10111101
10000011
1111111110100100
1111110111011010
11001101111
10100111111
110100000
1111111001110101
11010111111
1010011101
1010011011
1110010100
1011110101
110110110
1111110000111010
1111110100100001
1111111110101100
100000
1001
1111111110110000
1111111111100001
1111111111110101
10101111
111011100
110010010
1101100000
10001101
1111111110011100
1111111001110100
11011011
110011100
1111110111101110
1111110101111001
110101000
10011100
10001100001
100010000100
11000001010
1111111010111110
10111010000
1111111110110000
1111110110000010
1111110100000000
1111110000000011
1111111110110100
1111111111010011
11101
1111111111111011
1111111111111100
1111111111100111
1111111110110000
1111111111111100
1000110101
10000000000
1111111100101000
111101001
1111111011010011
100101
10001011001
1111111011001010
1111110010000001
1111110110100000
1011100010
100011101110
10010100000
1010101011
1111110100000010
1100100100
1111110111111010
1111111100110101
1111111100001000
1001110
1111111111011001
10010
100111
1111111111111101
101110
1111111110110100
1111111110000111
1111111010100101
10000101111
11001010001
100101000
11000010111
1110110110
1010110111
10010011101
1111111101111010
11010010110
110001111100
100111000010
11010000110
1111111011101100
111110
1111110101001111
1111110101111101
1111101100001100
1111110101011101
1111111100011010
101111100
1111111111011000
1111001
11110
1001000
1111111111011000
1111111111001111
1111111101100100
1111111100000111
1111100111
11010010001
110010100
10100100111
10011110110
10011110111
1111111110001111
11100101000
101001010101
101110100000
100010101001
11111011
110111
1111111110011010
10000110
1111110001101101
1111100111111011
1111101101111110
1111111100100101
1111111011001010
1111111111101011
0
10110
1111111111101010
1111111111011010
10011
1111111110100110
1111111101001011
101010100
10000000010
1101000111
111011111
1111111111000111
10011111001
10010111010
10011010110
101100001
1101111111
111000000
1111111001111110
1111110110110101
1111111110111001
1111111100111011
1111101111011111
1111110111101001
1111110000110111
1111101111010101
1111111001001011
111010
101000
111
1111111111111010
100100
100110
1111111101110000
1111111001110011
110001010
10011010
11111111
1001101111
10110000001
1101011000
100101101
1111111011000001
1111101011011001
1111011000101110
1111101010011000
1111110110111001
110101011
1001001110
11101
1111110001111010
1001111
1111110011110100
1111100111100101
1111111010100000
1111111110110010
1111111111100100
1111111111110000
1111111111111111
1111111111101101
1111111110101101
1111111110110100
1111111100000000
1111111011010110
1111110111110100
101001010
1011101011
101001010
10100110111
1111111001001001
1111110011101011
1111110010010011
1111011011011111
1111110001011011
1111110111110101
1111000100
1111111011000011
1111101101100100
1111111100000101
1111111111000011
1111111100110001
1111110001000101
1111111011011011
1111111111001011
100001
11
1111111111111011
1111111111011001
1111111111011101
1111111101101111
1111111010010111
1111110010000001
1111011111011011
1111110011100001
1000101010
1111111010100001
1110001
1111100001000010
1111110101001011
1111100010010101
1111101101010100
1111110010011101
1111111001111101
1111110000111100
10110111
110110000
1111111110001101
100101000
1111110101101100
1111110011001010
1111111010011000
1111111110010011
1111111111011001
1111111111110101
110001
111010
1111111110111011
1111111101011111
1111111011100010
1111110111101101
1111100110100000
1111011111001011
1111101010101111
1111100001000000
1111101010111000
1111110001100000
1111110010001101
1111101101100010
1111011111111011
1111101110011011
1111111000110011
1111101110011101
1111101101110100
1111111111011001
1111111000100100
1111111010100110
1111110100000011
1111111001101101
1111111001110011
1111111110100101
1111111111101000
1111111111111101
101001
1000011
110
1111111111110101
111010
1111111101101111
1111110111001000
1111110001011110
1111110010011111
1111101101001001
1111100111001101
1111101011000101
1111101011001010
1111100111010110
1100
1111110001101110
1111110111010011
1111110000100011
1111110010001111
1111110000011011
1111111000100100
1111111101000111
1111111010010100
1111111011101101
1111111100010010
1011
1111111111101000
10111
110
1101
10010
1111111111101000
100110
111110
1110000
100000111
110111100
1010000111
110001001
1000110
1111111011101110
1111111010111010
1111111011001011
1111110101111001
1111111101101010
101110110
11110000
1111111101000110
1111111101011110
100010
1111111111111010
10010
111010
0
1111111111011111
1000111
101010
11000
11010
1
11111
101111
100
1111111111000100
1111111111111100
110110
1111111111110001
100001
110110
1010010
110000
11110
100110
100101
101001
1001011
1100100
1111101
10000000
1000011
1100
110001
111011
1010
