1111111111010010
10011
11001
1111111111100110
1111111110100111
111
1111111111101010
110000
1111111111101111
1111111110111100
110
1111111111110011
1111111111110101
100100
1111111111111101
0
11110
1111111111001000
100101
1010
1111111111011110
1100
1000
1111111111111010
1111111111110001
1111111111111111
1111111111100100
1111111111101100
11000
1111111111100101
1111111111100111
1111111111110011
1111111111111010
1111111111111010
101000
1111111111111100
100011
1111111111110111
1111111111101101
1111111111101101
1111111111001101
1111111111110111
1111111111110110
1001
1010
110
1111111111011100
1111111111010100
1111111110101011
1111111111110111
100101
1
110010
1111111111111101
1000
1111111111100111
10010
1111111111110100
100010
1111111111100101
1111111111011011
111100
10001
1111111111011101
1111111111110001
1111111111010010
1111111101100001
1111110110011111
1111110011001001
1111101111010110
1111101001100111
1111100110101111
1111101110011111
1111110110011111
1111111000001111
1111110100101111
1111111000110011
1111111011001111
1111111101110011
1111111110110100
11010
1111111111111011
10
1111111111111110
101
11000
1111111111111111
100101
1111111111101101
1111111101110101
1111111100011100
1111111011111110
1111111111011010
1111111001011111
1111111100000001
1111110111000110
1111111000111101
1111111010101010
110100
1111111010101010
1111110000000101
1100100
1111111110111110
1111110010111101
1111110001011100
1111101101011000
1111110010011100
1111110111111010
1111110111011011
1111111110100011
1111111110000000
1111111111100100
1111111111110011
1111111111101101
1111111111110001
1000
1111111111001110
1111111110010111
10000111
100101001
101001011
10001001
10111101001
100100000101
1110110110
10001010000
10000000010
1101010101
110010101
1111111001110110
10001001010
1111111011001111
101101101
1111111100100001
1000111
1111111010001111
1111110111101011
110100
1011010
1111111111101100
1000110
100101
1111111111100101
101010
1111111111100001
1010010101
101111000
1010000
1111110110001011
1111111101000100
1111111000000110
11011000
1111111010011110
110101001101
10111111111
10000000100
11001011000
1111111010110000
10101000100
1111000111
1011110
1011110101
11001001
1000010
1111111111011111
1001000
1111111101100001
1111111110100001
11000
1111111111100100
0
1101011
1111111111111100
1111111111111110
1010010
100101
1111111001000010
1100011100
10110001000
11101010111
111011011110
110101101001
101101001100
10001011100
100011110111
10101010011
100001110100
11101000111
10011101010
11011001010
1111111101011001
1111110001001101
1111111001100011
110110001
1111111111100101
101101
1001
1111111111011011
1111111111110111
111110101
1111111010000011
1111110010000000
1111111111100101
10111100
1111011
1001010100
11001110001
1111000110
10110101001
11100000011
101100000011
101000011100
110101011000
10010000001
110010101110
11111100101
10110011010
10010010010
101110101
111010011
1111110101010011
1111111011011111
100110
10100
10
1111111110100010
11
100011010
1111111100000110
101011111
1110011111
1111111011101001
100000010101
1110101101
1100111110
11111101110
100001011001
10100101000
101100000111
10100101101
101111011000
10111111100
11010011011
10010100000
10110001
1011010011
1101001111
1011100101
1111110011000111
1111110110011101
10010010
1111111111110011
1
111111
1111111111111110
1000011101
1001000101
10100011011
11100011101
10000000111
11110001010
100101101001
100001000110
1111101000
100100111111
100010110000
100011001110
100101010100
111
111011101
1010001111
1010000010
1111110000000010
1111110000001001
1111111111010100
10
1111110001110100
1111111100101000
11100000
111101
1001110
1001010
1111111110100011
101011011
11011010
11001110
1100111011
1111111011111001
1111111101000001
1111111111001110
101111
1111111010001101
110110110
101001101001
10111110000
1111011111100000
1111011110110100
1111100001010000
1111100111001101
1111111000000001
1111101001010101
1001000011
1111101000110101
1100001100
110001101
11001011
1000101
11
11101
1111111111010111
10
1100100
100100101
1111111100101110
1110100
1111111110101000
1111100100001100
1111010101111101
1111110110001011
1111110100110101
1111110011110110
10010101011
10011011101
1111110010000101
1111101111100101
10111011011
11011100
1111110011101100
1110001111
1000000100
110100010
1010000010
10010010101
1000001111
1111100
101001
10011
1111111111111110
1111111111101000
1111111010111111
10001001100
1111111100001101
1111110100000110
1111101011111010
1111010100101010
1111110001110111
1111001011111001
1111010111101010
1111011011001111
1111010110001000
10000101111
1111110011001101
111000110
11010110100
1111110111101111
1111110000011011
1111111101110101
1111111111001101
1111110011001110
1111111111111011
1111110101011000
1111111100101101
1101101
10110
100000
100000
11
1111111010011010
111010010
1111110000011110
1111011001011111
1111101111111001
1111101011001001
1111101011100000
1111110001111000
1111101101110001
1111010011001001
1111110111000101
1101101100
1111101101001111
1111111110011101
10100001100
1111111000011011
1111100100101001
1111110100010011
1111110010010111
1111101010101100
1111100110111010
1111101100010001
1111110111111101
1111111011010110
1111111111000001
11101
1111111110110110
10111
1111110110101010
1111101111110011
1111100100101000
1111111100111001
1111101011001001
1111110011101000
1111100010111010
1111111011101010
1111100101111100
1111001101110000
1001000
1111111010
1111110000101000
1111111011111001
110110
110001001
1111110110111101
10000100
1111101001000101
1111101010111010
1111111000000001
1111111111010111
1111111101001111
1
0
11010
1111111111100001
1111111101101011
1111110010111110
1111110100010010
1111100111010110
1111110010011110
1111110010111100
1110000011
1100110
1111010100
1111111010100101
1111010011001001
1111110011101000
1111101110100000
1111101000011110
1111101001100100
1111110101010101
1111110010100101
1111101111000111
1111111101100011
1111110110010001
1111101001111110
1111110110111111
1111111111010011
1111110100001110
1111111011111000
1111111111110110
1111111111110110
1111111111111101
1111111111100111
1111111001000000
1111111111010000
1111101111000011
1111100010100111
1111111010010101
1110000100
1111111110001101
110000011
101010001
1111110000000001
1111011101010111
1111110010000000
1111100000000011
1111101100010110
1111101100111000
11010011
1111101000000101
1111101011000011
1111100110011001
1111101011011100
1111100010101101
1111101101100110
1111101011000110
1111111101010011
1111111111111010
1111111111011100
1111111111101011
1111111111101010
1111111110000100
10101100
1011111
1111110110100001
1111111000101101
1111111111000000
1111111101101000
1101101001
1111110011111100
10000101011
1111100111100100
1111111111011111
1111101100110010
1111111011001011
1111111111100101
100110011
10100010100
10100101001
1111111110000011
1111111111010000
1111111001101111
1111110110100000
1111111001011110
100001001
101111
1111111111111000
1111111111110000
1
100101000
111101111
100110101
1011010
1111111101010101
1011000101
1100011000
1110100111
101111011
1111010011010010
1111110011011000
1111111100010111
11001000
1111101111001010
101010011
1111111011010000
110001010
10110011111
10100010000
11001100100
1111110011111111
1111101111110000
1011100
1110000
10110
110
1111111111101001
1010000
111101011
10101101001
11001101010
1011110100
1011111001
1100111001
111000111
11001110111
1111111100000100
1111110101011110
1111111101011000
1111110111000100
1111110100101101
1111111111111111
101011000
1111100100010011
111110110
10111010000
11010100010
10000101110
1111111100010010
11
111100111
1010100
1111111111101101
10010
1010
1110011
1000000101
11110111011
11101101111
100101010100
10110111001
1100110101
1111110110010010
1111110101100000
10100110
1111110100111110
1111111011000001
1111101111011000
1111111010101001
1111111111000101
1111111000000000
1111101100100101
100111111010
10010111101
10101100010
11000010111
1101011011
1000101001
1011011110
1111111111111011
111011
10
11
10001101
1010111
1101000111
11100101110
11110010101
10101100111
100011011
110111011
1100001011
1000010111
1111110100010001
1111101001101110
1111110101100100
1111001110
11111001011
100100110
1100001111
10011110110
11001001110
11101010000
1100111000
1011011111
1101100011
101000101
1011
1111111111111111
111111
10001
1010111
10100010
101100
1100100111
10100110101
1100000000
10000100011
111011111
1111100011
11100100110
11101001111
1011010100
11000011011
100010
1111001100
10111011100
100111010
1111111010101001
1111111101001111
10001100
100010101
10010100101
1100000110
100010111
1111111111100110
1111111111100001
110
100111
100100
110101
1111111111110000
1001001001
100111000
1110001101
10100111011
10001000110
10101011000
11101000010
100001111011
101011111100
10000010111
100010011011
10101011110
10101000010
100011010
1100000111
1111110101001100
1111110001111101
11100011
1000110100
1001110111
10110
1111111111011110
1
1111111111001101
1111111111111001
1111111111101101
10100
11000110
101101000
100001010
10101000010
100001110000
11110111001
100001001000
10011111011
1011010110
10001100101
1111111000110001
1111110010001111
1111110010111000
1111110110110000
1010110110
1111111000110101
100001
1111111001111011
1111111111110001
1111111110010100
1000001
1111111111110110
1111111111100101
1111111111100010
110
1111111111111000
111110
1111111111011010
11001000
101111010
1010110110
10100001010
11111010001
100000001100
10100100100
1110001100
100100110010
11110000001
10001111010
11100000
10011100101
11110010000
11010110110
100001110100
10100111011
10100010001
1000000010
1111111111111101
1111111111011101
10010
1111111111011010
1111111111101110
1111111111110111
101010
1111111111010101
1111
10101
1111101
1010101101
10010000110
11001000010
100000001101
11100100100
10110101000
100000011110
100001111001
100010010000
10010100000
11111000011
11011101000
100010011010
11110110011
10111110110
10001111011
111000111
10101
1111111111100011
0
1111
1111111111110111
100110
1111111111001010
101101
1
1111111111101010
100101
1011
110110
1000111
1111111111011011
1001110
1111
1111100
1000100
10011100
111111
101101
1111011
11100010
1100111
1111111111110110
100001111
10000001
1111111111010011
1111111111011101
100011
11010
0
