100
100111
1111111111100011
1111111111011100
100011
1111111111100001
100101
1111111111101011
1111111111101001
101
1111111111100100
111
1111111111101111
1001101
1111111110001111
100000
1111111111111000
110110
1111111111010101
100
101000
1010100
1010
1111111110110110
110101
1
1111111111110000
1111111111011010
100000
11100
100010
1111111111011001
1111111111100111
1111111111111110
100
1111111111100101
1001
1111111111100101
110
111
1011
1111111111110011
1111111111010010
1111111111011111
1001000
1010010
1111111111001011
10101
100100
1100010
1001010
1111111111110101
1111111111110010
110
1111111111101100
1111111111111010
11110
100010
1111111111111100
1111111111000111
1111111111110000
100000
1111111111000101
1111111111111111
1111111111000010
1111111101011111
1111111101110010
1111111100101001
1111111010001111
1111111000010010
1111110011010100
1111101111110011
1111111000101011
1101011
110011011
110001010
11111110
100001110
100111110
111000
100001
1111
1100
1111111111100111
100111
1111111111101110
110
11
101
1010010
1111111110101111
1111111111011000
1100101
10010011
101000000
1111111100010100
1111111000111110
1111110011001110
1111111000010110
1111110001100000
1111111000110111
11010011
1000101101
11011101
100001011
1111111111011101
1111111100010101
1111111110100101
101010
111000
1111111111111110
100110
1111111111100010
10001
10000
110
1101101
10010100
1111111111000000
1111110
10001010
10101010
1111111101011100
1111110000001011
1111110010100000
1111110111011000
1111100111101110
1111110111100111
1111110111111001
1111110101111001
110010010
1111111100010100
1101000
100011111
1111111101101101
1111111101000111
1111111111100001
1111110
1001110
101111
110011
1111111111110001
101001
100
100100001
101000011
1111111101010110
1111110110010000
1111101011001010
1111111100101110
1011011100
1111111001101001
1111110000011101
100000101
1111101001101111
1111101100100000
1111101101100000
1111111001100000
101011101
1010010101
100101010
1111111100101010
100011
1111111111010110
1111111110100101
11010010
100011101
1001101
1111111111100101
1111111111011011
1111111111001000
101
11111000
1111111111110000
1111110100110001
1111101011011111
1111111011010100
1001001111
1111110110010000
1111101000111100
1111101010101111
1111101100110000
1111100111011100
1111101010101010
1110101110
10010101110
11011110
1111101011
1000000000
1111110001001000
1111110000000100
111110000
10001000111
1010110010
10100011
1111111111011011
100100
1111111111101001
11
1111111111100010
100100000
101001111
1111110101011001
1111101010110001
1111111011001110
1111111011101001
1111101001010111
1111100100010100
1111100101100101
1111011110000011
100011
10000010100
1011110
10011111010
1111001000
1001000111
1111111010110110
1111101111001000
1111111010100000
10011010
1100111000
10100001000
100101111
11001
1111111111011101
1111111111100011
1111111110010101
1111111110001011
110011101
1001111000
1111111110001101
1111101110100100
1111110111110011
1111110110011100
1111110100010000
1111110000000101
1111101100001100
1111110011010110
1111111101001111
1111110100001111
1111111110011111
1111111101001000
1011001
10101110
1111111110000100
1010110101
1111111000101010
1111111011101011
10111001011
10100101001
110000110
1111111111101010
1111111111111000
1111111111011111
1111111101000100
1111111101100011
111011100
11000110
1111110011010000
1111110100100101
1111110011001010
1111101010000100
1111110101101000
1111111000101111
1111111101100011
1010001000
1110000010
1111110100110100
10110
1111111011010000
1111110111011100
11011111110
10111101100
1011110001
10111111001
11001010
10100001010
1101111111
1101110
1111111100111101
1111111111100000
10
1111111101010110
1111111101101010
1001011011
1111111011100100
1111101111001100
1111101111100100
1111110110110010
1111111111000010
100111101
100010101111
10011101000
111100101
10111100010
1010110001
11101000100
1111111001111001
1111110010110001
1111111101100011
1100000001
11001101
10001001011
1001010010
10000100010
10001000111
11110010
1111111110110001
111
10
1111111101100001
1111111010101001
1011101
11011111
1111111010111110
1111111010010010
1111111100001100
1111101000111000
1111111111010001
1111111111111110
1111101100000000
1111110100011011
1001011
1100101100
1110010101
1011110101
110100111
1111101001100100
1111101000110010
1111111110111001
1111111001011011
1100
1000001000
110011101
10000011
1111111111010110
1111111111110101
1111111111100010
1111111101011110
1111110101111010
10111101
1111111110110101
1111110001000011
1111111000101110
1111110101111010
1111101110111111
1111111010111010
1111101010011111
1111100001001100
1111110001100011
100101001110
11001001111
10111000001
1111011011
10111101
1111101101001000
1111100001000101
1111101001001110
1111101111111111
1111110011010001
1111101111010010
101
111111
1111111111010111
10110
0
1111111000110010
1111111011110100
10010
1111111010010011
1111110111010111
1111110101101010
1111111000010010
1111101010100000
1111100110111111
1111111000000110
11111010010
11001100100
1011000001
110001101
100111
10000010001
1100101
10101010
1111101111110000
1111110011010011
1111110001010101
1111110111001001
1111101100110111
1111111110000000
0
1111111111011010
1111111111000011
10100
1111111111011001
1111111101010011
1111111101010010
1111110111001010
1111110010100011
1111100100011101
1111111010101011
1101000010
1111111111001001
11
110010001
1000000110
1111101001001010
1111100101101100
1111100101010100
100110010
1111101101011110
1111111010010001
1111111110000111
10000
1111111010000101
1111101101110000
1111111010010100
1111111100101101
1111111100011010
11
1010
1111111111110110
111000
1111111010101001
1001101111
1100010
1111110000001110
1111111010000110
1111111100011010
1111101110110001
1111111000111100
1111111110011110
1110010111
1111111001010000
1111110100011010
1111110110001110
1111100110001100
1111111100010111
1010001010
110110101
1000010
1111110110101010
1111111111100010
1111111011001001
1111111011000010
1111110111011011
1111111010111100
1111111111010001
1111111111100100
0
1111111111111111
10011111
1001000100
1011011110
111100110
101111100
1111110001010011
1111011011100100
1111101101000110
1111110010000011
1111110011110011
1111110101100111
1111110010000110
1111100111111111
1111011010111101
1010000110
110100001
1101100101
1010101101
1111111110110111
1111111001100110
1111101110101011
1111110111001010
1111110101111110
1111111100100011
1111111111111001
10011
1111111111110010
1111111110011110
1000101101
110100011
1011001101
110000000
1011110100
1111110111011010
1111100001011011
1111011010001101
1111101110011100
1111100111111000
1111111001000011
1111100011001011
1111101001010100
1111111010101101
10010011011
10000010101
1010011001
100110110
1111111111110101
1111101100111100
1111101100001101
1111110011100111
1111110110101110
1111111101011100
1001011
1110
10000
1011100
1010110010
1111111101101100
111100100
1000101101
1111111010
1111011001
111001000
110111000
10101100
10111
1111111101101111
1111111110110000
11010110
1111110100
101110110
1111111111000010
1111111110000111
1111111100100110
1111110101110101
1111100111001110
1111101000011000
1111110100010101
1111111100111101
1111111101111110
1111111111110010
1111111111111111
1001100
11000
1101101110
100000110
1100111010
101010011
10100001010
10101000011
111110101
1101100010
1011111101
11110000100
101101000
1110011011
11011110111
10010101101
1110011
111011111
1111111010010100
1111110111100111
1111101000110100
1111011111110101
1111101010001010
1111111110001111
1111111111101001
1111111111000110
1111111111011011
11
10001
1111111111101011
11100100
1111111111001000
101111000
11100100
1111110000110100
1111111111010101
10000100
1001101100
100100001
10110011
1111000110
10010100110
1100110101
1111111110001110
11011011
1111110000001110
1111101110100011
1111110000110101
1111100011111010
1111011100101001
1111100110111011
1111111011001101
1111111110010101
1110
100
1111111111111100
1111111111110110
1111111100010010
1111111110010110
1111110010101110
1111110011101110
1111111100111010
11001101
1101011010
1000010010
10000010101
10101010111
10111101110
10110001100
100001110110
1101000001
1111111111011011
10101101101
1111111010011101
1111111000101000
1111110011001111
1111100010001001
1111100110010101
1111110011000101
1111111100001000
1111111111010111
10010
1111111111110011
1011
1100
1111111010100001
1111111110010101
1111110111100010
1111110100110101
1011011
1111111000000010
1111110101111111
1001000100
1010010111
1011001100
1000100010
11100111111
11101010110
10100111000
1001110111
1111111001111100
1111010111001111
1111100001001110
1111101001100001
1111110000101111
1111111011101010
1111111011111000
1111111110010001
1111111111001111
1111111111011111
1111111111111100
10001
111
1010001
110010011
1001010010
1000000110
1111111001110111
100000
1101010110
1000
111101010
1000000100
1011000
1111110011000100
1111011110111111
1111101010110001
1111011010100001
1111011001100010
1111101000001001
1111110001100000
1111111010101001
1111111011000101
1111111011101111
1111111110011110
10111
1111111111001000
1111111111101010
1100
10000
1111111111011100
1111111111001110
10000011
100100111
1111111111000100
1111110101010111
1111110101110111
1111101111110001
1111101110110111
1111100001001101
1111100100101100
1111111011100000
1111011011000000
1111011101010111
1111100000110111
1111100101100100
1111101100110011
1111110111001111
1111111000001010
10101
1111111101110111
1111111100110011
1111111101111011
1111111111100000
111
1111111111010110
1111111111101011
11110
1111111111111010
1111111111110000
1110
1111111110000001
1111111111010101
10111110
1111111110101100
1111110001111000
1111110100000001
1111101101001011
1111110011110111
1111011110000010
1111011111000000
1111101001101010
1111101110011101
1111111011111100
1111111110000001
1111111010110010
1111111110001010
1111111111111110
100111
1111111111110011
1111111111000010
11111
1111111111001010
1111111111111100
1111111111101011
11
100010
1111111111111100
1110
10101000
10011001
1111111110110010
1111110111100001
1111110110111000
1111111000111111
1111111001001010
1111111100011010
1111110101111101
1111110101100100
1111111010000100
1000101
1111111101001010
1111111110100000
1111111111110111
1111111110000010
1111111110110011
1111111111101110
1111111111100110
1111111111011010
1111111111111110
1111111111101101
1111111111101101
100110
10101
1111111110110011
10110
1111111111101001
1111111111110001
110
1111111111010110
1111111110110111
10011
1111111110110011
1111111101010010
1111111110100111
1111111110111110
1111111111010110
1110001
1111111111000100
1111111111010000
1111111110110111
111101
1111111101111110
1111111110111001
1111111111100110
10
1111111111101111
1111111111110100
1111111111110000
0
1
