1111111111101011
101
1111111111110110
1111111111111111
10
1111111111110010
101010
100110
1111111111000111
1111111110101000
1111111111100011
1111111111010100
1111111111110010
11110
1111111111101101
1111111111100101
1111111111110110
1100
10000
10100
1111111111111000
1111111111100001
1111111111111101
1111111111000111
100111
1001
1111111111110111
1111111111110110
1111111111111100
1111111111100110
100010
1111111111101010
1111111111101100
0
1001100
1111111111011001
1111111111110010
1111111111010001
1111111110101100
1111111111101101
1111111111111011
1111111111110101
1111111111100001
1111111101110111
1101
1111111111110001
1111111110111110
11001
1111111111010010
1111111100001000
1111111111000110
1111111111111010
1111111111111011
1010
1111111111010010
1111111111110011
100111
1100
1111111111111101
1111111111001101
1111111111100001
11000
1111111110001100
1111111110111000
1111111111110110
101001100
1110101
1100111
1111111101011001
1111111110110100
1001001
10010
1011
1111111100001001
1111110111100111
1111111010011101
1111111101100011
1111111001111101
1111111100001110
1111111110101101
1101
100000
1111111111101001
1111111111110010
1111111111101001
1111111111011000
1101
1011
1111111111100111
10
1111111111001110
1111111111110110
1111111111111101
101000111
1111111111100010
1111110101111111
1111110110010100
1111101111110111
1111101111110101
1111110010001000
1111111110101010
1111111101111001
1111110011100110
1111110011111001
1111110110010010
1111111000100000
1111111101001110
1111111111011011
1001001
1111111110100111
1111111111101010
110101
1111111111011100
10010
1110
1111111111101010
1111111101000110
1000101
1111111111100000
1111110011111010
1111110111010111
1111111010100110
10010000101
1100001010
1111111110010001
1111110011101111
1111111101001000
1111111000000000
1111111100111001
10111001
1111111001111100
10111100
1111111000101111
1111110100011100
1111111001001011
1111110110101011
1111111001000001
1111111010011110
1111111111010011
110000
1111111111000001
1111111111110001
1111111111010000
1111111110110101
1010
1111111100100010
1111111101000111
1111110110101011
1111111000001110
1111110001001010
111010111
1011011000
111110011
1111111010001111
1111110100100010
1101100100
1111111000111111
1111111000000110
1111111010000001
1111110110101101
1111111111111110
1111111000011110
1111110001010001
1111110111000111
1111111010101010
1111111011110111
1111111111001010
1111111111110011
1111111111101111
1101
1111111111100001
1111111101111101
1111111111100001
1111111000000000
1111111000000010
1111111001110101
1111101011111100
1111110010011111
1101101100
1010101
110110110
101011111
1111111011001100
1111111100111100
1010111010
1111110001010001
1111111010100000
1111101011100010
1111101010000000
1111101111011011
1111101110110000
1111101110001100
1111110101110001
1111111011000111
111000
1111111111111001
1111111111101110
1001
10000110
1111111011100000
1111111110000110
1111111001001001
1111111101010010
1111111001100110
1111111000010000
1111110101110001
1111111111101101
1011001000
1111111010100011
1111101011100101
1111110101110110
1111101100101101
1111110010011100
101100111
100011000
100111001
101110111
1101100
1111111110111100
1111011101000000
1111100101100001
1111110010101000
1111111110011111
1111111111011010
1111111111111111
1111111111101101
1010001
1111111011000101
1111110100000010
1111111101010100
1111111101000100
1111111100110111
1111111111111100
111101110
10001000100
1110010111
1111111011010111
1000001110
10010000111
1111110110000010
1111100101001100
101000010
1111110111000100
1111111011110000
1101011101
1111110110110110
1111111111001010
1111011111010110
1111011101110100
1111110101011100
1111111110110110
1111111111110111
1111111111101110
101111
11110
1111111111100100
1111110110011100
110111100
1111111011101011
11100110
1001100000
10000101000
10001111000
10110010000
11010101011
110101101
1010111110
10010010001
1111111011101100
1111111111000100
1111110010001000
1111011110110000
1111110101010101
1111111000000101
1111111101011110
1111101110110111
1111101101000111
1111110101111001
10010
111111
111110
1
1111111111101110
1111111101001101
1111110101000100
1111111100000000
100100001
10011011010
10101101011
1011011001
101001100010
10010100110
10000000
110100011
1001001010
10001000110
1111111001001110
1100110
1111110011111111
1111110111100010
1111100110000100
1111101010010001
1111110001000101
1111110011000110
1111110011011101
1111110111010101
1111111110010011
1000000
101001
11010
1111111111111111
1111111000011011
1111110001111000
1111110111111011
1111111011110101
1111110101000001
1011000
1111110100101100
1111110010101101
1111111010010100
1111001111111111
1111100011010110
1111111001010110
1111110101011000
1111011110000011
1111100101001111
1010
1111111101111010
1111101101100110
1111100101100001
1111110100101001
1111110100001000
1111101110001100
1111110110011010
1111110111001110
1000000
1
1111111111001111
1111111110100100
1111110000001101
1111101010101010
1111101000110101
1111011001111011
1111011100010000
1111010000100111
1110111000100000
1110111010010100
1111000100111000
1111001000001101
1111001111010010
1111110011111011
1111110110100010
1111100110111101
1111100101111001
1111111011101110
1111101011000010
1111110000000011
1111111100110011
1111110101100001
1111100000000101
1111110100010011
1111111100000110
1111111001110101
1100001
1111111111110100
1111111111010010
1111111111111110
1111101111110011
1111100010010100
1111100010001101
1111001101011100
1111000111101001
1111001000101010
1111000100000110
1111010100010110
1111011111001010
1011010011
11100110011
11101110
1111110000101110
1111110100100101
1111100011000010
1111100110100111
1111100110100001
1111111101001100
111100010
110101000
11001
1001101101
101000000
1111111110010111
110110
1101
1111111110111001
1111111110111001
1111110011000001
1111101001000001
1111100101001110
1111101000110011
1111110101101111
100110000
1010110110
10100111100
1010101010
10110100111
10100111101
100001001100
1111111001110010
100101001
1111101100101000
101011000
101010100
1111110000010001
1111111010000110
101000010
1111111101110010
1011000
100000110
111101101
0
100110
10110
1111111111100011
1111111001110110
1111110010111001
1111110111010000
10110001
1111111101101010
10010001010
11110110010
1101010001
1100110101
1011000101
11101110111
10010110010
1111111011100010
10001010
1111110010110001
1111110111101010
1111111010100100
1111110010001100
1111111000111010
101000100
110010010
1010101101
11000010000
10011111100
101
1111111111100010
1111111111001011
11100
100111
101110011
100010110
1111111111100101
1101000001
1111111010010000
1000111110
1011110110
11001000010
1001001010
100011010010
10111001111
1111110110001101
1
10000111111
1111111101010011
1111110011010000
1111110001010001
100010110
100100001
1100101010
10000000010
10110000011
10010110111
1010011
110010
110011
101111001
101110111
10001100010
1011111101
11100011111
1010000100
1001001101
1111111000000110
10110001001
11111
10100101101
1011011000
10010100011
10111110110
101010011
1111111010001101
1111111101000111
1111101011100101
1111101001100010
1111111110000011
1111111101101100
1000100
1101010110
1111110100
100011100
10001001
11110
11000
10011110
1011111111
10011101110
10100101110
1100001010
10111110001
10110101000
1001100000
10000000100
1111111101001110
10001111001
1111111001100000
111000011
1111111011110000
1111101010110111
1111110100001011
1111111010100000
1111100101111000
1111100011100110
11100100
1001011110
10110010101
11001000000
10011000001
110111101
100101111
1111111111101011
1111111111101010
1111111111001101
1010011101
10101111011
1001101101
101101110
1111111110100000
1111110101001101
1111000111
1111101011010111
1111111010010010
10010100011
10010100101
1010100010
11100001011
111101100
110000101
110011100
1111110111111101
110110
1001
11101101
1101111110
10110110001
1110110000
100110100
1110
1111111111011011
1111111111000001
10011010
10010100011
100001111001
1111111110
1011111
11100001
1011011000
1001101
100101111
1111010111
1110010011
1001011101
10011111111
1011000000
1100111000
111000101
1000100000
1001000010
10110110
100001010
11111000
1101111111
1100010010
1111111011101100
1101000
1001
1111111111111110
1111111111111010
101000101
1101010101
11100110000
1100110110
1111111100100110
101011001
1111111001101100
1011100110
1100000100
1111110011001110
101000010
11001101
1111110001101111
1111111000110010
111011111
1111111101101011
100001
1111111101111111
11100011
1111011000
1001000101
1101110011
110100111
11111111
1111111111110111
111001
1111111111101111
1111111111111111
1111111111100010
1111111111110101
1100010011
10001110110
1111110010110111
1111110110110010
1111111011111000
1011010100
1111111010000100
1111101100010111
1111101110110010
1111110010110011
1111111001010000
1111110000110100
1111011111100000
1111101010010010
1110001001
10100100000
1011011010
10111011100
1010011001
1111111111110100
10010110
1010000
11010
1
101000
1111111111111100
1011
111
101011
111110
1111111000110101
1111111100010100
1111110101000011
110
1111111110001101
1000111101
1111111111001011
1111101101101011
1111110101010011
1111111011010111
1111110010001100
1111111000100000
1111111011001100
1111111000000111
110110111
1100010111
110100000
1111111110110100
1111111111010001
10000011
1111111111110111
111
1111111111101110
1111111111111010
10110
1001010
100000100
1111111111111111
1111110110101011
1111101101000011
1111110001101101
1111110010011001
1111110000011111
1111110100011011
1111101100100101
1111100111100010
1111110100110100
1111110011000110
1111110110100100
1111110000101000
1111100010100010
1111101111000000
1111101101011010
1111110011100110
1111110001111011
1111111001110101
11000110
11100000
1011011
100011
1111111111110101
11100
1111111111111001
1010
100
1111111111010000
11101111
1111110111011111
1111110011001100
1111100100101001
1111100101110111
1111101100101100
111100
1111111000010111
1111111001010101
1111110101001010
1111111010100111
1111110001110011
1111101110110100
1111101011101011
1111110111011011
1111111000000010
1111110100110011
1111111101001110
1111111111110110
100011
1011
100101
101001
1111111111100101
1111111111111001
1111111111111000
10111
1111111000110110
1111111000100010
1111111101011111
1111111010110110
1111111001111011
1111111101010100
1111111000010111
1111111101101011
1110
101100010
110111001
10001000
1111111101000000
1111111000001000
1111111001010100
1111110101111011
1111110110100101
1111111101000101
1111111111110000
1111111111101111
10
1111111111101011
1111111111011011
1111111111110011
1111111111011111
1111111111110010
100101
1111111111110010
1111111111111010
10101
1111111111111111
1111111111110101
1111111111110011
1111111110111111
100
1111111111110110
1111111111100011
1000
1111111111000010
1111111111011110
10010
1111111111010011
100000
1111111110011100
1111111110011100
1111111101110100
1111111111111110
1111111111100001
11011
1111111111011001
1011
