101
11101
111110
1100
1111111111101101
11110
111
100110
1111111111110010
1111111111000111
1111111111110011
101
1111111111100100
1
10
10
1111111111101111
1111111111101001
1111111111011001
1
1111111111011111
10011
1111111111111111
1111111111110011
10111
1111111111010000
1111111111111101
1111111111100000
1111
1111111111010010
1111111111110110
1
10110
1111111111110100
1111111110100010
1111111101100111
1111111110011111
1111111111010111
1111111110011101
1111111101110010
1111111100010001
1111111110001001
1111111110101001
1111111110001101
1111111110010100
100
1111111111101100
1111111110100111
1111111111001011
1111111111101101
1111111111011010
1111111111011000
1111111111100101
1111111111101001
1001
1001
10110
110101
1101
1111111111011001
1111111111111001
10101
1111111110101010
1111111100010100
1111111110001110
1111111101011110
1111111100000101
1111111001110001
1111110110011110
1111110110000100
1111110111000001
1111111011011110
1111111010000100
1111111100111011
1111111101000000
0
11001
1111111111011110
1111111111010110
1111111111000111
1111111111100000
1111111111110010
1111111111101011
1111111111010010
101011
101100
10010
1111111111100000
1111111111110010
11000
1111111101000111
1111111000011011
1111110111110011
1111111010110111
1111111100011001
1111111000100011
1111110100110010
1111101110001000
1111101100101000
1111100110011111
1111101111001011
1111111010111001
1111110111101111
1111111000111011
111101
11101000
11010101
1000101
111
10001
1111111111111111
1111111111101100
11000
1111111111010011
1111111111110101
1111111111011011
1111111111101101
1111111111010111
1111111100111111
1111110111010111
1111111010000011
1001010001
1101001110
1111111101011000
1111111001101110
1111100111000101
1111010110010010
1111010110000100
1111011011010100
1111010110111111
1111110100101001
100110001
100000100
1110000010
1011001011
111000110
1111111111111101
1111111010010010
1111111101100010
10110
1
1010000
1111111111101001
1011
100111101
1000101110
1111111011111110
1111110110100000
10101110
10100100000
111011010
11010
1111111000101010
1111110000000100
1111110011010100
11000011
100100011
1111101001010111
1111100010110101
1111110001011111
1111111101001010
1111111011110101
1111110001100101
111000000
11101101
1111111010011110
1111111100001000
1111111111101100
1111111111101001
110
1111111110010010
11011
1101011100
1010001001
1110111
1111111101001011
101111100
1111111111010101
1111111100100110
100111001
11100111
1111111111010010
10111000
1111110110001101
10001011
1011111000
1000100010
101110110
11110100100
11101010111
1111111110101101
100000
1111111101101110
1111111011010111
111101
1111111111100111
101111
11100
100110
11001100
1001000100
1111110100101000
1111111110101000
111011110
1111101100000111
1010001
1101100
1111110011000110
101010000
1111111111111011
1111111010100100
1111101011000100
1111101000000010
10110000
1111101111101111
10111110101
10011101101
101001110
1111101100100010
1000000111
1011000000
1111111111011010
100001001
1111111111100100
1111111111100101
101110
1111111101111100
11001000
1000000
110100100
11111110
1111111011000010
1111111111110101
1101011110
1000000001
10001
1111110111000000
1111101010110011
1111100111100011
1001110101
1111110111110100
1111110111111101
11100111010
10010101011
1110001100
1011110010
1111111000111001
1111110110100001
10111110
111
1111111101101001
101011
1011
101111
11011
1010111001
111110001
10100111
1111100110
1111111000110110
1101000111
111101100
1000
1001101100
1111011110
1000010101
11000100
1111100110010011
1111111101000100
11011000010
1100110100
100100111
10100101000
11000101110
1111111101001011
1111110001110111
1111111010001000
1111101111000111
1111110111110011
1111
1111111111111101
100100
1000011
1001100110
1011000101
1100101011
101000010
1100
100101111
10110011100
1011011
1111110110
11101010000
1111110111100001
1111011111001000
1111110110110011
1011001110
11001101110
1000001011
1101001011
1010010011
10000100001
1111110110110010
1111100101100111
1111100111101000
1111110110010011
1111110111110101
1111111111100010
100100
1111111111110101
10000101
1001110100
111011001
1111111111111111
110001101
10110110
1111111101110001
10110001100
10011111100
1010011101
1111111000010111
1111001101100101
1111100001010110
1100001001
10110001111
101001110010
1111101101
101001000
100010001111
11011010010
1111111100111100
1111101111111001
1111100010100010
1111110111010101
1111111101001111
1111111111111100
1111111111100111
1111111111110110
1101001
11111
1110001110
1100001
1111111010111011
1111110101000001
11000001
10100101
10011100010
1111111100110010
1111100110011000
1111001010010100
10101
110100010010
11100010101
101101101100
10001101100
1111111101100100
10010101100
10100010011
10011101101
1111111100011011
1111011111101011
1111110111010101
1111111111011110
1000
111100
1111111111001000
10001011
1111111111011010
100100011101
10011011010
1111111010100010
1100111111
1111111001110001
1111111011000011
100010010
1111101011101110
1111010010011010
1111100001100100
100100100110
10111011101
10110110110
11001100011
10001010110
1101011110
1111110101
100010110011
11000011001
1111111110100110
1111101011100001
1111110100101010
1111111101110100
1111111111101110
1111111111101010
1111111111101101
1111111111111111
10100110
11110101010
10111011101
101111101
100000100100
1111000111
1111111111001010
1111101000010001
1111100011001011
1111101000110000
1010101110
10101111001
1111000010
11100110010
1101110100
10100000100
1111001000
10011101010
1110001011
11101100100
1110001010
1111101100001001
1111111100101011
1111111110111110
1111111111111101
1111111111101010
0
1111111111101110
111000111
1111001111
1100001010
1111111100010000
1010011
1111110011011001
1111111001100111
1111111001000010
1111011111000000
1111110001010100
1111111100000010
101110101
11010000101
10010001111
10111110000
1010101001
11100101010
11110011101
100010000000
100101100010
1111110101000001
1111100101101100
1111111001110000
10111111
1
11001
1111111111100011
1111111111101000
1111111100100110
111010
1111111100111000
1111111110101111
101111
100011010
1111110010111100
1111111001010101
1111011000111101
1111111001010100
100100
1001100111
1110100001
1101001010
110011110
10100100101
10010101101
11001010001
1001010010
1010110110
1111101000000110
1111101001111000
1111110111001100
1001001
10010
100110
110011
1111111101101011
1111110001011101
1111101101110111
1111101001110001
1111110011110000
1111111100110000
1001010
1111111001111111
1111111100001100
1111111000001110
1111100101111000
1111110100100000
1111110100111100
1001011111
111001101
1111110001101100
110001011
1111110000101110
1111110100101011
1111110101000110
1111110000001101
1111100111010011
1111101011100101
1111111010001000
1111111111010101
1111111111011011
0
1111111111010101
1111111100001010
1111110001001001
1111110000011101
1111101000111110
1111101110111000
1111111011110100
1111111011000100
1111101011001010
1111101100000010
1111101010100111
1111011110011001
1111110111111110
1111011111001110
1111101000000101
10000101110
10101000000
1111111100000000
1111111001000011
1111101101011100
1111101111111000
1111011110101101
1111011000100001
1111101000111000
1111111000111100
1111111111100101
1111111111110101
1111111111000010
1111111111110101
1111111110011110
1111110110011100
1111111100111010
1111101100110000
1111110100101000
111101010
1111110010001110
1111111000011110
1100
1111101011111011
1111100000010101
1111101001110101
1111101001000010
1111111101100110
1100001101
1111111001010011
1111101001100010
1111110100101011
1111100010101100
1111100100001100
1111010000001101
1111010101100001
1111101110011001
1111111100111101
1111111110001110
1111111111100011
1101
1000
1111111101101010
1111110100010011
1111110011010010
1111110100010111
1111110010010001
1111101110100000
1111101111001000
1111101111100110
1111101100011010
1111101101100110
1111101101101010
1111110000100101
1111101110111100
1111101010011001
1000000
1111110000001111
1111110110101111
1111110011011100
1111100101001010
1111101000111000
1111100010110000
1111100011001101
1111110011001001
1111111100100101
1111111101111111
111101
1111111111111101
1
1111111100001100
1111110110001001
1111110101000001
1111111111001010
1111110111101101
1111101001011111
1111110100010010
1100111
1000101
1111111100001100
1111110111100110
1111101110101001
1111011000011011
1111101001110001
111001100
1111100111001101
111110110
110110110
1111111100110001
1111110110000010
1111101111101011
1111101010000001
1111111100111110
1111111110100100
1111111111001111
1111111111001001
110000
1111111111110110
1111111101010110
1111111011110011
1111111101000110
1111111010100001
1111110000110110
1111110110011101
100011111
1111111000010001
1001100100
11100100
1111111101000100
1111101111000010
1111100101001110
1111111100001101
1111110111011000
1111110100101001
100111
1111111001100110
1111111100001001
1111101101101011
1111110010100001
1111110100001010
1111111111110001
1111111101110111
111010
101001
1111111111111011
100
1111111111000111
1111111100001000
1111111111100010
1111111110100011
101011100
1001111101
1111101111110110
1111101010010100
11111011
1110000
1111111100110010
1111101111111010
1111101011101100
1111111110101111
1111101110000110
1111110011011101
1111110101100101
1111110001100101
1111111001101010
1111110010000111
1111110100110110
1111111000010111
1111111110111111
1111111100111101
100
1111111111110011
1111111111011100
11010
1111111111010111
1111000
1001111000
1111011100
10011001001
1111101
11110101
1111110101111101
1101000101
1001101010
1111101011100011
1111110001110010
1111011101001011
1111101010000011
1111101101000110
1111110000000011
1111110010000101
1111101101000101
1111111010000101
1111111001010010
101010001
100011100
1111111011011111
1111111011001010
1111111111010111
1111111111101101
1111111111100100
110
11110
1111111110111111
1000101110
1100100111
100101111
101100001
1010001001
10111110000
1111111100000100
1110101100
1110110010
110100
1111111110011110
1111111000111100
1111110101000001
1111101000111001
1111111101010101
1111101111000001
1111110111010100
1111111111011011
11011001
100001001
1111111111010011
1111111110010011
1111111110100101
11
1111111111101000
100
1001
110001
1111111111100010
1101001
1011001100
10010110100
10000001100
10101011101
1100011010
1111111111100110
1111111000100011
1101001
1110011110
1010011010
1111111110101000
1111111101000110
10000
1111111100001000
1111111011010011
110100
1111111111110100
100101
11110
1111111111101100
1001
1111111111011100
1011
1111
1000
101
1111111111111110
1111111111100111
1111111111101010
11111
1011
1111111111101111
1101
1111111111111100
111100
101101
100010
110001
111011
11111
1000110
10000001
101111
110100
10111
1111111111100111
1111111111011100
1111111111111111
1111111111100001
100011
