1010
1000
1111111111010111
1111111111111111
1111111111110100
110
1111111111110011
1111111111111000
0
10100
110
101110
1110
1111111111110011
1111111111111001
11
1111111111011101
1111111111101100
0
100
101
1111111111111000
111
1111111111111110
1111111111111010
10001
101111
11011
1111111111010111
110010
1111111111110000
1101
1111111111001111
111000
11110
101101
110000
1111111111001001
1111111111101100
1111111111001001
10
1111111111001110
1111111110100010
1111111001111110
1111111111110011
1111111111100111
11001
1111111111011111
1111111111000011
1111111100011001
1111111111101110
1111111111100011
110
1101
111
1111111111100001
1001010
1111111111100001
1111111111011010
11
1111111111010110
110
1111111111001011
1111111110111010
111111
11110001
1110011
1011111
10000001
101110001
11001100
1111111010010001
10011
1001100
1111111100110110
1111111000010001
1111111001000011
1111110011001101
1111110110011000
1111111101001011
1111111111111000
1111111111101101
1111111111110110
1111111111011100
1000100
101111
1001
1111111111111000
100000
101001
111010
10
11100010
110011111
101000100
111101111
11010010101
11000010111
10011000101
1100000101
1111111111001011
10111010
1111111000001010
1111110111111010
1111111000100111
1111100110001100
1111101010000100
1111110101000101
1111111010111110
1111111110011010
1111111111000010
1111111111101110
100110
1111111111111000
10000
1111111111111110
111010
1110011
1011110
10010011
1110110110
1100011010
10011001011
1101110111
1011011101
1101111010
1001001011
10010111
10001000001
1111111000111010
1110011011
11010000
11010110
1111110011001001
1111111000110001
1111110011101100
1111110010010111
1111111000100011
1111111110000011
1111111110011111
11011
101010
1111111111110011
1111111111000101
1111111111001001
1111111110001110
1111111111100111
1111111110110100
1111111111111101
100010100
1010011101
10101000010
10010110011
10000000
1111111111110101
1000001101
1111111101111100
1111111100111110
110010
11001010
101100101
11111010
101110101
101011
1111110010001011
1111101111100000
1111111000110110
1111111101011000
110100
1111111111101101
1001110
11111
1111111111101111
11010010
110011001
111000111
1111111111111111
1001100001
10110010001
101101011
11101010
1111001010
10000100111
1001100000
1111010100
1111111011101111
11101000
101000
1111111011111010
1111110111100101
110010000
1111111011010110
1111110000011111
1111110010001000
1111111011111101
1111111100011000
1111111111001010
1100101
1111111111111000
1001111
0
1001011101
1011011100
1111111100111000
1100111110
1110
1100011
10010010010
1010001001
11011010110
11011011110
1010
1111111010010000
111111101
10100101
1010101000
100011101
1000001100
10010111111
1111111100101101
1111101100101100
1111111000111101
1111111110010011
1111111101111110
1111111111000100
1111111111110100
10101
100100
1111111001100111
1111111100000100
1111111100110000
1111111010001110
1111101
1111111110100110
1111111001011000
11000100100
111000011
1111111010000011
110101101
11101011100
11000101101
1100010011
1010010001
10001010
111000101
10011000
11010010010
11011001
1111110000100110
1111111100101110
1000001
1100
1111111111100101
1111111111111111
1001011
1111111001000000
1111101111010110
1111101111101000
1111101100111100
1111111110010000
1111111111011000
110010
1111101111101110
1111110010111001
1111110001110111
1111000001010000
1111001001110101
1111110000001111
10110101
100100
10011111111
1111110001101100
1111111001111100
1111111100100011
1000111111
1000010110
1111111000011101
11111000
10101110
1001101
10
1111111111110011
1000110
1111110111010111
1111101001100101
1111100100001101
1111100011001010
1111100000110100
1111100000000100
1111001000110100
1110111010001000
1110101100010011
1110011001000100
1110101011100011
1111000000001101
1111010011111000
1011010100
1000101110
1011010010
1111110101101011
1000100111
1000111
1111111010001000
1000101
1111110110110000
100101100
1111111111001101
1111111111111101
1111111111011010
100001
1111111111011010
1111110011010110
1111100000111100
1111001001101100
1111000101010110
1110101111011100
1110110011011110
1110100010011001
1110100001101000
1110111000111111
1111011101011000
1111111110010101
1111110001101011
1111111111011010
1010100111
1111010111
1100100011
1010000101
10011010010
10110010
100010000
10110100
11010000
110000011
1111111110001000
1111111111000001
11111
1111111111111110
1111111110100111
1111110101001101
1111011010101111
1111000010110010
1110110110001010
1110111111101100
1111011001011000
1111011011010011
110001111
101000101
1100110100
1111111100100101
1100010110
10011101011
11101110
1111111100001011
1111110110101000
1111111101011101
1111110111101011
1111111101011100
1111111000010100
1111110010111011
10100001
100000010
1111111111111000
1111111111110101
1111111111011101
1111111111111111
1010011
1111111101101000
1111100010010010
1111100101111011
1111100101110010
1111110001001110
1101110110
1000001011
10011101111
10010101100
10010111001
1101001110
1111111100110010
11
100000101
1111110011110001
11010010
1111110111010001
1111111100101000
1111110111110000
1111110011111011
1111110001010100
1111111001010111
11011111
1100
1111111111110111
1111111111101010
1111111111110011
1111111111101111
1111111110110001
1111111110001001
1100110000
11111001100
11111110010
111011000
10111010001
10011100001
1111111001010110
10001101
1111111011010001
10011111000
10001110
110111110
10000010
1101111011
1111101110110011
1100011100
101111
1111101110001110
1111110000000110
1111110111011010
1111111110111000
11000001
11100
1111111111101000
10011
1111111110111111
1111111111011100
1001101101
11100000110
10111000110
1111101000
100110001
100111000
101010100
1000010101
1111110010101011
1111111100011010
1111110011101110
10010110111
1010010001
1111100101000101
1111111111000010
1111110001001000
1111110101110010
101111110
1111100000101000
1111110101000000
101100111
101101001
110101011
1111111111110001
10111
101000
1111111100001111
1111111110010110
11010010101
10110010011
10000011101
1100001001
1000001111
1011101111
1111111011010001
1111110100110010
1111111111001000
1000111111
1111111111100100
1111111010100100
1111110101001110
1100110011
111010001
11110100
10100001
10111
1111101111011010
1111110110010110
1010011001
1001010100
101011111
1111111110111111
1111111111111011
101000
1111110111101010
1111111111100101
10100110010
111100101
1101010011
1111110000101011
11
1111110101010101
111110
1000000000
1111111101011000
1111110111100001
1010100
1111111011111110
110101
1011100
10110
101100000
1111101111100010
1111110010011000
1111101111001010
1111111010111100
101101111
1001001100
1110111
1010
1111111111101011
1111111111110110
1111111100001000
101101101
1101100010
101011011
1010110000
1101
1011
110111101
1100000
101100111
1001001010
10011000000
1111111000100101
1111111101011111
1000100110
1111111111100001
1111110101101101
10101100110
11101010
1111110010101111
1111110011011011
1111101111111000
1111110
101111100
1011100
1000111
100101
1111111111111011
1111111001100110
1001110010
10000010010
1111111110001001
101011111
1001100110
1111111001011010
111001
1111110100101011
1111110101000100
110011000
11101010100
1111111001001111
1111111001101011
10011011000
10101000011
101
110
1000111101
1001000110
1001111
110111101
101110001
100010101
111101
1011
1100
1111111111110010
1111111011101100
1001100000
1011111001
1111111101011101
1111110010010010
1111111110110100
101011000
1010101000
10010100
10111
1111111000110110
101101101
10100001001
1111110110000010
100100011
1111110000010110
1111111000010010
1111111000100101
10000101
10011000
1011100
1010100110
110010011
10010001
111
1100100
10001
1111111111110111
1000111
1110010001
1001101110
1111111111010110
1111111100010101
1010101110
111100100
1111110011101101
1101010111
1111111000111100
1111111110000010
1111111100110111
1111111110101110
1111110010110000
1111110001111000
100010000
1100111010
1001001010
1111111101100011
111111111
1011010110
10111011110
1010010011
10101010
1001110
1111111111010010
100
1111111111101101
10000110
101110
1111001100
10110010111
100101
1111110111101010
1111110010011001
1111101010000000
1001100
1111111011001000
1111111001010100
1111110111011000
111011111
1111111001000111
1011001
111001010
111000
110100011
1111111000010001
1011101
10010100001
10100110110
110100100
100000
1111111111110100
1111111111111011
1111111111101001
10011
1010011
1011101
1000011001
111101000
1111111101110010
10001110101
1111111110101101
10101110
1111110011000101
1111111110000100
1111110110111011
10000110110
111110
1111110110101101
1111101100010011
1111111000000110
1111111010001001
11100110
1111101111101101
1111110011101000
101011100
1001101101
11010001
1010000
1111111111011000
1111
1011
1111111111101000
1111111111101000
100000101
1100010010
100001000
10000101
101110010
10111111011
1010110010
1111111001101011
1111111001110001
110000
1011000011
11110
1111111100010101
1111111000001110
1111111110000010
1111111100001011
1111111001000100
1111111000000100
1111110110010000
1111111011101000
11000
1100110
11100
1111111110010111
11
11010
1111111111001011
1101
1111111111110101
100110011
1011100011
10001100010
1111111111111110
1010100010
10010101011
11011100011
10001001101
10000011010
10010110
10000001
1111111101011010
1111111010001101
11010011
10000
10001010
1111111111011101
1111110101111011
1111111000010110
1111111111001010
1111111111111101
1111111111111011
1100
1111111111111101
100010
10000
100101
1111111111110011
1111111111001011
1111111010011101
1111111010110011
111010
10111111
101110100
101101010
10110101
1111111111101000
101011
11101011
100110000
1100000
1000
1111111101000101
1111111100101111
1111111110010010
1111111110011101
1111111111110101
100
1111111111100011
101
101010
1111111111101111
1111111111100111
1111111111111101
101100
1111111111100101
0
1111111111101111
1111111111110101
1111111111001111
101111
1111111111010001
11101
101000
1
1111111111111111
110101
1111111111011100
1111111111111101
110110
1101
1111111111111111
1111111111100111
1111111111011111
1111111111111101
1111111111010100
101100
101011
1111111111111001
1111111111010001
