1111110000111010
1111111000011110
10111001110
10100100010
1110101101111100
1111100001110001
1111011010011111
1111111010011011
1111101010100101
1111010110110011
1111011010100000
100000101011
100000011011
1111110100000001
1111101110
10011111011
10110011010
1111101011110101
100000101
1111110001101110
1111010000000101
1111001101010010
1111100100100011
1111110111001100
1001010000000
1111110111111001
1111010111000001
1111011101010100
111111110011
101111010110
