1111
10001001
1111111111100110
11101110
110100
1111111010101100
1111111011110111
1111111001011111
1111111110000010
1111111010111010
1111111100100010
1111111010001100
1111111011111101
10000000
10111100
1111111110110001
0
1111111100111100
1111111011001010
1111
1111111111000010
1111111101001101
1111111000011100
101101100
100000000
1111111011111100
11110011
1111111100101101
1111111100111101
1111111110010111
