1111110010111100
10010011001
111111011011
100101101010
1111001010000101
1111100000111110
1011101101
1111000101001111
1011001001
110000100
11011011001
110110100001
11100011101
1111000101011101
1111111010000110
11011111100
11000110010
1111110111100110
101011111000
1111100000110111
1111101001000100
1110011101101111
1111110101010101
111000110010
10110010001
1111101011011000
1111110111011101
101000011110
1111010011010001
11011110
