1110100011110010
1111111001000000
10000011011
10100000000
1111000001101100
11111101001
101110111010
1110110011101111
101100100011
1000011
101100100111
10001
1011100
111011011
1111111111110000
110100110110
1111010101001010
1111100111001110
1111111101111001
1001100
100011001110
111110
1111101110100011
101011110
1101100100
11000100
111001110001
1111001000111100
1000010010100
101010111111
