100000010
1111001001
1111111111011010
1111110010010001
101110001110
1110001011100
1110001100010101
1110111110011011
1000100111110
1111100110001010
101100111100
1111101100010011
11101101000
1111001101000100
1110110010001000
1101100001000101
1110000001001001
1011100111001
1101011000111
11000010010
110010101101
10110000
100101100
10111010000
1110011101001011
1110001011001011
1110110110110101
1111001001100110
1110011001111111
1111101110000000
