1111111001010100
11000001101
1100010
1111000110111010
11101101011
1111101111011111
1111110101110000
1111111000001000
1111100011001101
1110101111001101
1000011011100
1001011010001
1111111110110011
1001010110001
110011101010
1111011001110010
10110110000011
1100001011011
1110110010110
1111101101110000
1111101000000001
1111111110011000
1110100010101010
1101101110010100
101000011011
111011001010
1001001110001
1100011111100
1111110110110111
1111111111001001
