11110101000
1111011011011010
1111111000000011
1110011001100100
1110111010101111
1000001011001
1111011001
111001101001
1110001011110110
101011101100
1111110010111110
1110111101000110
10110011000000
1011011100001
11111011
1101100010001001
1001000110110
1111010100011100
1101110000100111
1101000101
1001011000011
1111001
1010010101011
11000110001
110010000101
1111010001101110
1110111111010010
1101100001110101
1110110100101000
110101111001
