1111010111111000
1110110110001111
1111111100111110
1101100111001011
1111100101111000
1111100100001111
1011010111001
10110011010
110011100101
111101100001
1111010010011110
101000111100
1111000011001011
1111011111010110
1111010011111001
1111000000110001
1111101000111011
1111100001100011
1111101000011100
1011101010101
1111000000000010
1010110010
1101010011110100
11111100011011
1110101100010110
1111000101101001
1101111000101
1111000011111011
1111110100111001
100111010100
