10101
1111111111111101
1111111111101001
1111111111110010
1111111111110010
1111111111100010
1111111111100100
1111111111010001
1111111111101100
10010
1111111111111100
10101
111011
1111111111110111
1111111111100100
1011
1111111111111001
101001
1111111111111101
100100
1111111111110111
111010
101111
101101
1101
1000110
1111111111010101
1111111111011011
11001
11000
1010
0
1111111111111011
101001
1111111111100000
1111111111110110
1111111111011011
1111111111011100
1111111111011101
11001
1111111111011101
11
100000001
1010101100
1110111
1111111111110101
111001
11011
10000
1001011
110111
10
100000
10111
110100
1111111111110101
1111111111111000
1111111111110011
111011
1111111111010011
1111111111101000
1000
10110
1111111111001100
1111111101010011
1111110111110010
1111111001111111
1111111100100100
1111111011100000
1111111011111101
1111111110100000
1010000101
11000101
11100111
1010010000
1010101001
11011110
1111111111010011
1111111111011101
1111111111110000
11
1111111111111100
11011
1111111111110111
110
11100
10
11
1111111111110101
11100
1111111111000111
1010101
11011100
1111111001111010
1111111100010010
1111110011001000
1101001
1000010010
110100100
10101000000
10110111101
1111111110110111
1111110110011010
1111110100100111
1000010011
1111111100110010
1111111000001001
1111111101111110
10110100
1110
1111111110010101
1010
1111111111101000
1111111111110100
1111111111100111
1100000
10011111
110010
1111111100110110
111111110
10000010000
1011111010
1000100000
10001001110
1111001000
1111111000100110
10110111
11000101111
10100010000
1111101110100001
1001010001
1111110001100011
1111111000111100
1011100110
10001001
10100011
1110111111
101101000
1000000
1111111111101101
1111111111101001
1111111111100110
1111111111111010
100010
1010110
1011000101
1000000011
10001010010
1111110101011000
10011011110
1111111110011111
10010010000
1111111110001100
1110100100
1111101101001110
11000000110
1100001001
1111110101001010
10010101101
1111111110011011
111001100
1111111101011111
110010110
1000010010
1011101100
101000110
11100
1111111111011100
1111111111100100
1111111111100011
1111111110101100
111
1111111111100000
100001100
10000000
1111110101001101
1111111100100000
10001000100
100000011
10100111010
100110100
1011011011
1111111101110000
110001011
10000001110
1001101100
1101011100
1111101110000001
1111111111000100
1111110100001111
1111110100000011
111100000
1001110011
110110000
10101
1
11010
0
1111111100001011
100001
1111111010000110
1111111100111100
1111111110010011
1111111001010111
1111111000110101
1111111100111111
1111111010100011
100011111
1011100011
1111111111100110
10110101100
101100
1100101001
10100000110
1111110011001000
1111111111011110
10010111111
1111111001110011
1111111111010100
1111111010110110
1101010
11000001
1011101
1111111111110010
1111111111101101
1111111111101100
1111111110011011
1111111111101110
1111110101100010
1111110010000100
1111111100100011
1111101001001000
1010001
1000111000
1011111001
110111011
1111111100011001
1111110101010011
111100110
1001001000
1111100000000100
1111110110110111
1111111010010100
1111110100011101
1111110110111100
1111110101100011
1111111000111000
1111110100000000
1111111100110101
1001110
10001
100110
1111111111100010
1010
1111111010111100
1111111110100101
111101010
1111110000111001
1000011110
100001
100010110
1111111001000001
1111111100101001
1110001001
10011110000
1001100001
1100000110
110110011
1111111011001000
1111100010100101
1111011010100100
1111001101110101
1111100000000011
1111100111010110
1111111001010110
1111101111001001
1111111010111011
1111111111010000
1111111111001101
1111111111100000
1111111111011110
1111111110101100
1111111110010001
1001101010
1100110000
11
1111111001101000
11010111
10101101100
1111111101111000
1111110011111011
1111111011010010
1111111101100001
1100110110
10100101111
1110001111
1111111100010000
1001011
1111100010011111
1111111010101001
1111111101100010
1111110100000010
1111110110000010
1111101110010000
1111111001001011
1111111111011001
110001
1111111111110011
1111111111111100
1111111111111100
10100
110110100
111000000
1111011
1111110101101100
1111110100001111
1111101010110110
1111111001011110
10111010
1111110110100011
1001000001
1000000100
1110000000
1010101111
11011001
10111100000
1111011
100010111
1010101101
1111111011011110
1111101110100001
1111110100000000
1111111010010110
101101
1111111111011011
1000
1111111110111100
10111
1111111101100010
1111111101101111
1111111001111101
10110101
1111101111100111
1111111011100100
1111111110111110
10111000111
1010111011
11111001
10110010111
11100001110
10111100100
1111111101000001
1001111001
1111111010011111
10010
11011010
1011100001
1111110011001110
1111101111001110
1111110110000111
1111110010101100
1111111101110010
10001
10010
1010
1111111110110000
1111111101001110
1111111100010100
1111110010001010
1111110110000111
1111110100010100
1001110110
10010000111
1110000100
1111111110101111
1010011
11101010100
1111111110010101
11000000110
110001011
1101101111
10101010
1111111100100010
1111110110001000
100001100
1111101111001001
1111101111011010
110000
1111111111011000
1111111101110100
1111111111110001
1111111111101000
1110
10101
1110
1111111011110101
1111100111111001
1111011001110010
1111100011111111
1111111010010101
1111101011000010
111
1111100101110101
1111111110101000
1010100111
1011111
100001100110
1101010101
1111111111011111
1111111001110110
1111110110010010
1111101100101101
1111110100100101
1111110011001100
1111110101001011
1100110010
111010101
11100011
1111111111100010
1001001
100011
0
10001
1111111100011100
1111101110000110
1111010001000110
1111000100110110
1110110111111111
1110111010111111
1111100111100111
1111111001100000
1010001110
10000100011
11101011011
11100011
1111110110010111
1111111010011000
1011101
1111111101110100
1111110010000000
1011011000
10010000001
10000001011
10000100011
1101001001
1111111111001001
11011
1111111111110010
100100
1000010
1111101
1111111110101000
1111100001011000
1111010100100110
1111000100101100
1110101101110000
1110111101011001
1110111000001001
1111011010001001
1111100011000111
1111110000011110
1111111101111011
1001000110
10010000
1111110110110000
1111111101100001
101001100
1111111011010100
11110011
10010101001
10101011000
100111100
101001010
1111110110101111
1111111101111110
101110
1111111111100100
10001
10010110
101100111
1111100110010101
1111101111110110
1111101110100111
1111100001001110
1111100011110101
1111001010000100
1110110100010000
1110101001101000
1110111001000010
1110111100011101
1111111011011111
1111110111011011
1111100010011010
1011101111
1111111100100011
110010000
11101
110101110
1111111000111000
10111000100
101011101
1111110010110010
1111111111100010
1111111111011010
1111111111110100
110011
11010010
10010000010
1111111101001101
1111111000001000
1111111010101011
1110011000
11011001
1111111011011100
1111100110000111
1111001101001011
1111000110010001
1111010100100101
1111111111011101
1111110111010010
1111110000101001
1111110101010101
1111111011101100
10101100000
10111110101
10000001001
1010100
10000
1100001111
1111111001000001
1111111111000110
1010101
1111111111101010
1111111111110010
1111010
10011101010
10000011001
101001011
1101100101
10100010010
110001
10010110110
1010101101
10100100
1000100001
1111101001010011
1111111011000010
1110011
101001011
1111111011111110
1111111001011111
1111111111100110
1000101101
101101
1111110111011011
110010
10101111010
110010
1111111111011100
1111111111101100
0
1111111111111011
1111111101101100
110110111
10100001011
110100110
11011011001
11110100
11001011101
1011110011
1101100001
1101011110
10010010000
1011111001
1111110011101011
1111110010000001
10101101
1110111010
1100000
1111111001101110
1111111001010100
1111110000111000
11000010101
1111111101101001
111111001
1111111111101100
111000
1111111111111010
1001
1111111111010000
1111111000010000
110001011
10111100010
11111111010
10101000001
101110110
100111110101
10000010100
10110101101
10000100011
10000111110
11101000
110100011
1110111001
1111110001101010
1111111100000101
1110110100
1101110010
111011100
1010110110
110101110
1111110100001000
1111111011110110
1111111111110010
1111111111100111
101000
1101
1111111111110100
1111111100000010
1111111111000100
101111000
1011100011
110011
110111010
101001000
1111111111011010
10011111010
1111110001100001
1111111111100100
1010001
1111111111100001
1001001011
1111111010100011
10100001001
1101100
1010110110
111111100
1111111010111100
1111110011000010
1111111010000111
1111111000010000
1111111011001100
100
111
1101
1111111111111011
1010010
1110000
1001001
1111111001111101
1111110010000001
1111111110001011
1111110111110001
1111111110100110
1111110110111110
11110010
1100000111
110100011
110110
1111001110
1111110101110101
110100011
1111111111010000
1111110101011101
1111111000110110
1111101110110110
1111101101010001
1111110101011011
1111111011100101
1111111010111011
1111111111110000
111
10010
1111111111100001
111100
100111
1001101
11101
1111111101000011
1000110011
1111111111101111
1111111011000100
10110101
1111011
1111110110111110
1111111110110101
10011
1111111100010101
1111111001111111
1011100011
1111111100110111
1111101110101000
1111111101100110
1111111011010110
1111110111001000
1111111010100010
1111111000011100
1111111011010101
110001
11010
100001
11110
100110
10111
1000010
1110011
1010110
11100001
11111000
1111111110111101
1111111001111000
1111110111100001
110011110
1001110001
11011010
1111101001111100
1111111010001000
11011
1111110111110000
1111111111100001
101110100
1111111111001111
1111111111011011
1111111111110110
1111111111110111
1111111111000010
1111111111101111
10001
1111111111010011
1111111111110010
100110
1111111111110111
10000
11110
111100
1001000
1111111111111101
1101
1111111111111001
1110
1111111100000101
1111111100011001
1111111001000100
1111111110111011
11000111
1000001010
110011010
110110011
11011000
101
101101
1111111111110110
1111111110110001
1111111111001111
1111
1111111111101101
11000
1111111111110111
1000
1111111111111110
100110
1111111111111111
111
1111
1111111111110111
1111111111101011
1111111111001000
10110
1111111111000110
1111111111100101
1111111111001001
1111111111100101
1011101
1111111111011000
1111111111100011
1111111110001100
1111111111011001
110011
1111111111011111
1111111111100100
1111111111010010
1000
11001
1111111111101001
