1111111111101000
1111111111111110
1111111111011100
1111111111101101
11
1111111111011000
10110
1111111111011000
1111111111010110
1111111111111101
1011000
1111111111101100
1111111111100110
1111111111111110
110110
1010
1010
1111111111100100
11111
100010
1111111111110110
11
1111111111011001
11010
1011
100111
1111111111110111
100110
1111111110101010
1111111111111000
1111111111001100
11100
1111111111110111
100010
1111111111000011
1111111111100010
1111111111001010
1111111111010110
1111111110100100
1111111111101110
0
1111111111011000
111111
1111111111011101
1111111110111000
1111111111001010
10110
10001
1111111111010011
1111111110101000
1111111111111010
1111111111000101
10001
11011
100111
1100110
1001111
1001
1111111111110011
1111111111101110
1111111111000011
1111111111100010
10101
1111111111111001
1111111101111101
1111111011011100
1111111010100100
1111111000110100
1111111000001011
1111111000101011
1111111010100110
1111111111110110
1111111110011010
1111111101110010
101101011
1000001111
10000001
1111111110110000
1111111110111001
1111111111110001
1111111111101101
10010
10100
111111
10001
1111111111100010
1111111111100101
11111
1111111111100110
11001
10101
1111111011111100
1111110000010010
1111101101000011
1111101011000010
1111101110011101
1111111000100110
1111110010100110
1111100100111110
1111111010000010
1111111010000001
101111000
1001010010
11110100
1101001100
1111111100010010
1111111110100100
100000
100
1011000
1111111100101010
100100
11001
10000
1111111111110010
100111
101111
10100100
101001
1111110111000101
1111110101011100
1111101000001110
1111110011011000
100110011
11001000
1111110000010110
1111101101110001
1111111111011011
10011010110
11000001101
11110001111
11000100
10010101
110100
1000011
1111111011101010
10010110
100010011
111001
1111111110110100
1111111111001100
1111111111010101
111101
11000
1111111100101111
1000110111
100001001
100100001
1111111010000001
1111111110100010
101010110
10110001111
1010100
1111110100100011
1111101001100101
1111110111111100
11110
1100001000
1111110110100010
1111110000100011
1111110101001000
1111111110000001
1001111111
1111111010001100
101111
110010
1111111010100011
1111111101110000
1111111111110000
1000
1111111110101100
10101
1111111010111011
1100011011
10101100010
10000111000
1110101101
10010011101
100100010001
1011110001
1111011110
101010110100
10100101101
1111110000101010
1111110011101000
1110010001
10000000100
10000001111
10110010000
111110111
1010011
1111111111010011
1100000011
1000011110
1111111110011001
1111111110001101
1111111111001000
1
1111111101101000
10010101
100000
10010101001
10101110001
1000110111
10000101100
1110011100
100010100001
1110010
11000110101
1110101111
1111111001100110
1111111110111111
10011011
1101111101
11111111100
11001010001
11111100001
1111000111
1111111100100010
10001000010
1001111000
1111110010
11101101
1111111110100000
1111111111100100
1111111111101010
1111111111001001
11000010
10001010001
10110000101
11011011010
1100110100
1111010110
10011000011
1011111011
1011111000
10011000100
1111101000000101
1111110110111000
101100
1111010100
1010100001
11101001000
1101011111
11010011111
10101000111
1110100001
1010101001
10010000111
10010010000
110101000
101010
1111111111110111
1010
1111111111101001
1111001
10000001111
1110111110
11110010000
100000001000
100000001001
10010110011
1010010001
100011110111
11010000110
111010010
1001111
1111110010111000
1111111000000101
1001100100
1111111100101000
1001101101
1111111001011101
1111110001001001
1
111011101
10001010100
10011010100
1000011000
10000
1001
111000
1111111100011010
1111111001100111
1100001100
10001010
1100110000
1100101010
1100000101
10111110100
11000011101
1010100000
1001000001
100111001
1111111100010000
100111100
110010100
1111111011010011
1101111110
1001110001
1000001000
1111110110100100
1111110001011000
1100111111
110101101
1100000010
100011110
11110
1111111111111010
110011
1100011
10011110
11011101100
1111111101
1101101010
101100011
111101101
10111101
10011110110
10110010101
1100100001
10011010000
11001001111
101100010110
1100010
10111101
10100111010
1111110000010110
1011011100
10011110
1001010111
11101100010
10101100110
1101110000
1000101110
11000
1100
101110
100011
1010011100
100010111110
1011001110
1011101101
111011100
1111111100101100
11101000
1111111001
1111111011000001
1100011001
111010000
1110
100111111111
11001001
110000010
11001101100
110101010
10011010001
1010111111
11001111
10101100100
1001
101110101
101011100
10100
100
1111111111110110
1001
1011001010
100110000011
1011101010
1111110011100101
1111111101100111
1111111011100000
1111111000110000
1111101110100010
1111111101110111
11011101
1101000100
10010010010
100110111100
1010000111
1111110110110010
1101100000
1101111110
1110110011
1001010010
11110
1111110011010000
1111101010011111
1111111110010011
10011111
1111111111000100
1111111111111001
1111111111101101
1111111111011010
10001100
10111101110
11000
1111110000111001
1111110110101100
1111111000110100
1111101110100100
1111110010000100
1111111110111000
111010111
1011001110
10011111101
100000011110
1011110
1101011
100010111001
10100111111
101011000
111111000
1111110011000111
1111101111111100
1111100110111001
1111111100010001
1111111110000111
1111111111011010
1111111111111011
110010
1111111110001011
11101110
111001100
1111110000100101
1111100011110000
1111110100001111
1111101111010000
1111100101100011
1111101010110001
1111111101000101
1111110010011100
10000000
11001111110
101001001010
10101010111
1111110000011001
100000001011
1111111111100100
1111101000000011
100001111
1111110100010000
1111110100111010
1111110001001110
1111110000001001
1111111100011101
1111111111101011
10010
1111111111111000
1100
100000001
1111111100110001
1111100110001010
1111100011100101
1111101110101100
1111100101000000
1111100000110010
1111110101010000
1111100101110001
1111110011101101
11001
100011
1111110011100111
1111110100101011
1111100011001101
1111101011100011
1111101011010000
1111011011110110
1111101000010001
1111111000000011
1111110100100110
1111101101000000
1111101001011001
1111111010111101
1111111111001111
101001
1111111111100010
1111111111001011
110100000
1111111000011110
1111101011101010
1111110011110110
1111110111110001
1111110001110001
1111111000101001
1111101100100011
1111101100000010
1
1111110011010001
1111110000011111
1111101111100111
1111100111101001
1111101110100101
1111011101100110
1111101111110111
1111010111111101
1111101010100011
1111101001101110
1001001001
1111111000010110
1111110101001111
110011
1111111110011001
1111111111100101
1111111111110101
1100011
1001010101
1111110110011100
1111111001010101
101110101
101111100
1111110101001000
1111111101000111
1111111011000000
11100000
1111110101110010
1111100000101001
1111100111111100
1111100001100101
1111001000100101
1111100011101111
1111100001111101
1111100111100011
1111101001010110
1111011100101010
1111101000100001
1111111100111011
1111101110110010
1111110111110011
1111111111100011
11000
111011
1011
10100001
10001100
1111101111010101
1111110111111010
1001000001
1111110001100001
1111111010101011
1111110100111111
1111110101000011
1111100111100111
1111110100001101
1111111101010010
1111101011111111
1111101010010011
1111110101101100
1111110010000101
1111110100010011
1111101110001000
11001101
1111101010110011
1111110101011000
1111110001010101
1111110101000001
1111111010111110
1111111100001100
1011011
1000011
1111111111111011
1111111100110101
1111111010010110
1111101111101000
1111101001011011
1011010010
1111110101110110
1111111110011000
1111111100100110
1111101000111100
1111111110011000
1111111011100111
1101010110
1111110110000111
1111110101110100
11001001
1111111101000000
1111110111000101
1111111101001110
1111110100001110
1111100010010001
1111101100110101
1111100011101110
1111110000001010
1111100
1111111100110000
1111111111101101
11001
1111111111110011
1111111001101001
1111110110100001
1111110010010010
1111111010001111
1011110100
1111111010010100
1111110101101110
1111110111110100
1111110100100110
1111111101100101
1111101110111001
111010011
101100100
111101101
1111111100110101
1111111101000101
1111111110010000
10101111
1111110110011100
1111111001111011
1111101101010001
1111110010100100
10111101
11100000
1111111110000101
1111111111010101
100010
100
1111111010101111
1111111001110111
1111110011010011
1111110111100101
1110010
1111111001110011
1111110000111001
1111111011110110
1111111101010110
1111110010101001
1111101010100101
1111111011110000
1110110101
1111110001110001
1111110101011101
111001011
1111111001
11001101100
1010001001
1111111000010111
111101
1001111000
101
100110001
101
101010
1000010
0
10001
101110
1111111110010000
1111111000101010
1111110000011010
1111110111001110
1111110001011010
1111111010000110
1111111000001001
1111110111100001
10000000110
11010111100
10101111001
1101001111
100011011100
101101101111
11011011100
10101011001
1101011111
111011111
1001110000
1011010011
10001010
1111111111101111
110
1111111111010001
1111
1101
111000
1111111111111001
11010010
110111
10111011
1111111100111101
1111110101011001
1111110111100100
1111011111
1110101000
11110111100
100001111111
101000001100
100010000110
11111100110
101101101011
11110010111
11100111011
10101111111
1011101000
111111011
100101000
1111111111001100
1111111010001011
1111111101100110
1101
10011
1111111111010010
1111111111110010
1111111111110111
1111111111110110
1000111
101100101
111110110
1111010111
11011001111
10001111000
1101111110
101000110001
100100000101
100001001001
10100110010
1011010011
10010010001
10100111000
1010111100
10001001011
1111000000
1001100111
111010010
111101
1111111101111001
1111111100111100
1111111111011100
100000
1111111111111000
1111111111111001
1110
10000
10
11001011
101000000
110111011
1000100011
110110101
110001101
1000000111
1001011100
1000001001
110011010
101111001
101110010
100101011
1011111
1000101010
1000110001
1000100
1111111111111110
1111111111011000
1111111111101111
101110
10111
10
1111111111011101
10011
1111111111111111
11101
11001
11011
11010011
10000010
110100
101011
100001
10110
100010
110111
11110
1111111111001101
0
111011
1111111111001100
101101
10010101
10111011
101101
1111111111111011
100001
1111111111001101
100100
