1111111111111000
1111111111000110
11100
11001
1111111111101111
1010110
0
1111111111111010
110101
101
101101
1111111111011011
1111111111100001
1110
1000
101
0
1111111111100001
1111111111100101
10111
1111111111101011
111
1111111110111001
1111111111101100
1011
1111111111101000
11100
11000
110111
101001
1001
1111111111110001
1111111111110001
110
1111111111111001
1111111111101100
101011
100101
11100
11111
101001
1100101
10110
1110100
101010011
10010111
1011
10
1000100
1000011
1100010
10110
10
1111111111110110
1000
1111111110111111
100010
101
1111111111011011
111111
10011
1111111111100111
111111
100000
10110011
100001111
101101001
100110101
11011111
110110101
110010001
11110111
110001
1111111100000111
1111111110111110
100001100
10000
1111111111001010
1001001
1011011
1111111111110001
110110
111
11000
1111111111110010
1111111111110111
100101
1111111111010111
1100101
1111111100011001
10001
1100111
110110100
10010101001
1111011110
1000011100
1100100
1100110000
100110
1111110010000111
1111101011001100
1111101001101100
1111110111011001
110000111
1111111010110011
1111111111110101
110
1111111111000110
101
101010
11001
10010
100011
1111111111011101
10100
10011
1111111111110100
1111111101000001
1111111101011111
1111111111001110
1111101011000101
1111101101011101
1111101011001001
1111111101101100
111110
1111110111110011
1111101011100010
1111110101101011
1111111011000001
1111111110111001
1100011011
10001011100
1000100001
111101111
1100001100
1011101000
111010000
101111
1111111111011101
100101
1000111
1110
1111111111000011
1111111111110001
1111111100101110
1111111010110011
1111111101010110
1111110100000001
1111111101111011
1001011010
1001001000
101010011001
11101101111
1111111110100101
1111010100100001
1111101011000011
1111101111001111
1111110010110011
1111110010110111
1111110010101001
1111111011111110
1001110
1010010011
1100010100
11100101
1111111110011101
1111111111110000
11011
100101
1010
1101
1111111110101000
1111111010000111
1111111110101011
1111110111100011
101001010
100011
11001010
1111110111100011
10101111
10010100001
1111111100001010
1111100011111011
1111101000000100
1111110100110000
1111111000101011
10110
1111111101101001
11010010
1111101111111000
1111111100011011
1111110110010011
1001101010
111110101
110010
100111
1111111111110111
1111111111000000
1111111111000001
1111111000100000
1111110001001000
1111111011000010
1111110100110100
1111111100100000
1010110010
11011110101
1110001
1111111110110001
11110010100
1011101001
1111100111111000
1111110111011111
1010101000
111110011
10111110110
1111110111010010
1111111111110000
1111111110010011
11111011
1111111111101011
1110100000
10100010101
101001
11011
101110
1111111111110001
1111111110111111
1111111011101000
1111110011000111
1111111111000111
10111
11010001
10010000100
1101110111
11001011
1111111010001010
1111110100010100
1111101001100110
1111101101110101
1111110000111111
11000
1111111111101101
1110001111
1111101010101111
1111111011011011
1111111011000010
1111111101000111
1001000001
100000000011
1101011101
101
101
110111
11001
1111111110110111
1111111010110010
1111111011111001
1111111010100111
1111111011111000
1111110110111000
1111110101111100
111111011
11100100110
111010101001
110100000
1111000110010010
1111011111100000
1111111101001101
111100101
111010011
10100010011
1111111110001111
11000101
1001001101
11101011
110111101
10111110100
1101011
1111111011010010
1111111111110110
1111111111111001
101101
101111
1111111111101010
1010111101
1101011011
1111110111100000
10001101
1001101101
1101011011
11100111100
101111100100
1010101011
1111011111001011
1111100011000111
10011010
10001011110
10000110111
10111011
101001110
1110100
10011001
1111111001011000
1110001100
11001011100
110110010
11000011
1111111111110011
1111111111111111
1111111111110101
10010
10101001
1011000101
10011110001
1100011101
1101111111
1000011011
10011100
100000101011
11000010101
1100101100
1111011111010110
1111001011101111
101111011
101000000100
11000111100
100011000110
11100100
1111110110110100
111001110
1000001111
10001011101
1010101010
1111111111100110
100100100
1111111111010100
1111111111101011
1010
1000111
100000000
10011100101
11100011000
100110011110
1111111100001011
1111000111
10110101111
11010110110
100010110110
10111100111
1111011100011010
1111001110000011
101010011
1101111010
1111111000100001
1001110000
10010010
1100010101
1001110001
11111101111
11001001010
1111111010100110
1111110101100011
1111111010000100
1111111111010110
11010
11100
11011
1111111110000001
10100111101
10101001110
10001000101
10100011111
100000011
10010101000
1011111000
1100101000
1100110110
1111101100101001
1111010111010101
1111110110000010
1111111000010010
1111101100001011
1111110100100110
11100100
1111110101010010
10000010010
11000000001
10101111101
1111111101001100
1111110011110111
1111111010101100
1111111100110101
1111111110111000
1100
110001
10101
1110101001
1100001100
1011101110
10100000101
11101111101
10010000100
11101010
1111101110101101
1111101000100110
1111110110101101
1111100101110000
1111110011000000
1111110110111100
1101100100
111010110
1111110000101100
1111110111011000
1111110011000011
1111101100
1111101011
1011011100
1111111100001111
1111111010010111
10011
1111111111101011
1111111111111111
1000000
100000011
1010000101
101100000
1110110011
1111100000
10101000001
10000100011
10010110001
1111101111001011
1101100101
1111110100100001
1111010110000100
1111100010100000
1111110011100010
1101011001
10110000111
110100000
100101110
1111111100101111
110111100
1011010110
10000
1111111100000001
1111110111101010
1111111111000100
101100
10011
11010
10010101
1111111100010101
1101101001
101001011
1111111011011000
11100010001
1111111011101000
1111101111000001
1111111000001100
1111101000011111
1111011100110100
1111100111110000
1111010111001001
1111111110100000
1111101111101011
1111101111011011
1111111110010001
101110
1111111101100110
11101111
1111101101011110
1111101111111000
1111111001011101
1111111010001011
1001
1111111111111000
100
11110
1111111011001100
1111110101000000
1011100110
1010
1111111001011000
110011000
1111111000011100
1111110110111000
1111111110001100
1111101100001000
1111101100100010
1000001011
1111111001000100
11001001011
110001010
101010
1111101001000000
1111111110010110
1111111100010100
1111101100001011
1111100111111000
1111110111110111
1111110101111101
1111111010101010
1111111111111001
1111111111000100
1111111111110011
111011
1111111000011110
1111101101001100
1101100
1111111101100000
1111110110100011
1111111010111111
100010010
1100011011
1111110011000100
1111110110111110
1001010001
11010100100
1111100110001100
1111110111110101
1111111101010001
1111110100101001
1111110110101011
1111111110100110
1111110000110000
1111011110001100
1111110110000011
1111111010100111
1111111001001000
1111111100101100
1111111101111000
100
0
10100011
1111111011011101
1111110100101000
1111111001010001
11110110
1111110101110100
1111100110010000
1111011111000110
1111110000000011
1111101110010111
1001101110
1111111100000001
1010101001
1111101011010011
1111111111110101
111001100
1111001001
1111111001000000
1111111101000110
1111111101110111
1111101010011010
1111101011110101
1111111100101100
1111111001001110
1111111101001011
1111111111001010
101110
11110
110010
1111111011110011
1111110100101111
101110
1111111010100001
1111100101011000
1111100011100101
1111101101111011
1111011100011011
1111101001000011
100101001100
1001011001
1111111010110100
1111110111011110
10011
1111111001111110
1111110110011101
1111111010101111
1111111010101100
1111111000001111
1111110100010011
1111110100010011
1000010
100001101
1111111111111000
1111111111100110
10111
1111111111001101
1111111111001100
1111111010000110
1111110010011111
11001001
1111101010011011
1111101111001111
11111110
1111111100010111
1111111101000100
1111111101010100
1111111010101000
10100110101
10111101001
1111111110010011
1111110010011000
1111101000001110
1110000
1111101000110101
1111111001000101
1111111100110001
1111110101001010
1111111011110101
1000011010
11001101
1111111111110001
1111111111011111
11111
11000
1111111110010001
0
1111110110111111
1111111011001111
1111011100111001
1111100001100001
1111110001010110
1111110010101001
1100001
1111111110110111
1111100111010010
1111111110101101
10101001010
1111111101101100
1110110
10000110111
1001100100
1111101110000110
110100001
1101011
1111110100110110
101010000
100000010
100011100
1111111111010000
100001
10011
1111111111001010
1111111111101000
1011110
1111111100011100
1111111111101000
1111101111111111
1111100100000000
1111111110111100
1111100011100110
1111101000100011
1111101011011110
1001100111
10001011011
1111111000110000
1111110010110000
10010111110
111001000
1111101100101010
1111111010010010
1111111100001010
1010110
100111000
1000101110
110110110
10100011
1111111111010001
1111111111110111
1000
0
1111111111100111
1100
1111111100110011
100010
1111110010111001
1111101010111000
1111111001100101
1111111110111111
1111111100111110
1111110010001000
1111111110100011
110100101
1111111111011011
111011011
1101011001
1000010
10101000011
1100011110
110011110
101110101
1011001110
1000101010
1110010
1111111101101010
1111111110111101
10100
1010
1111111111111010
1111111111001010
100
1111111111110110
1111
1111111010010101
1111110011100100
1111101101010011
1111110011110011
1111100010001010
1111110110110110
1111111010010011
101011011
1111111111010101
1111110100010111
11000010
10011000110
1001110010
111011
10100101
1011111000
111101011
100001010
10011100
1111111111100011
1111111111000100
1100
111111
1111111111101101
1111111111011110
1111111111011110
1110001
110010001
101011110
100110010
1001110001
101000100
1111110011101011
1111110001011001
110101110
100100001
100101000
100101000
1000010111
1010000101
1100101101
110010101
11110101
110000100
11010100
101001
1111111111001011
1111111111011111
1111111111111000
1111111111010111
1111111111011110
10011
10100
1101
1111111111100100
1111111111110001
100101
10110100
11111110
101010
1111111111000101
10
1101111
1010100
11001111
1101011
111001
1010001
101010000
111111
1000001
1101
10110010
100
11011
1111111111110000
1111111111111000
1111111111011010
