11010001110
101001011011
1110111111000110
1111010000000011
1111111010111011
101101001011
1111011110100000
1001110100100
1100011111
1111100110011001
1110010101100001
1111010111000111
1010110110
110000001100
1111111110000011
1111100110101001
111111110010
1010001101
1111100011010011
1111100111111110
1111110110001001
11101011101
101101100001
1110100001110010
110110011111
111000001011
10000010110
1111000110111011
110001111001
1111101011001110
