111001010100
1010111000
1110011111101001
1110110010010110
1011101110110
1111000111101100
1111010000110001
1110111110000011
1111101010101001
1000111111
1000011011011
1111110101000001
1111110011100000
1111001110110111
1111111000011010
1110010011001000
1111100000001001
1010000101010
11001110111
11010101111
1110011100111
1011001010101
111111100011
1111101010101100
1110100001011101
1110000010100
1111100100011100
1000010100011
1111101010001101
1111001011111011
