110000001001
1111100101010001
1101001000
1111110101100010
1111110000001001
1110111111100000
1111100110111011
1000111011001
11111111100
1001101111000
1100111
101100110000
1110101001110111
1111001001000001
1111011010111001
1111011110101010
1100001111
1000011110
111111111001
1111100000111100
1111001000001001
1111000001011000
1000111001
1011010011
111101010011
1111100001101011
1111001001010101
110001001100
1111110010110111
1111011110011011
