111100001101
11100010011
1111011101100111
1111000110111011
1111111111011110
1111110111101111
1111111001011100
1101000110
10010010100
1101111111
100010010100
10010001111
11100111101
1111100010010100
1111011001101111
1111001010010101
10111010001
110110111000
100110000011
1111100111110100
1011010110
1111011001110101
110111110100
110100000
1001000110
101011000101
1111110000001110
10100101111
1111010110000010
1111100100001110
