1111010010101001
1111010000010110
1111111110110100
1111101010100000
10001101111
100011011000
11111100110
100000011011
1111100000000
1010100101001
100011000000
1111010101001111
1110011111100100
1111110011101001
1110011000110100
100010000011
1110111000000111
1001111011010
100011010
1110110000110110
1110100110010101
1111111000001101
1010010100111
10111000
10001011111
1111101110101101
101101101111
101110011
1111010011101001
1110111001000111
