1111110101010100
10001101011
1000010011
1111111010100000
1000000111101
100001101101
1111101010100111
100111101101
1111001011000010
1111100110100001
1111010111111010
1110110001101100
10010101001
1000010100011
1111111110101001
1111111110010101
111101011101
1111010011100110
1110111001100011
1110000001
1111101100110001
111100010001
1110111010100101
111110
1111011010001100
110101100
1100110100
1100000110
1110111000101011
1111000101100100
