1111111110110010
100111000
1001101111
101000101101
1110101100101111
111001001000
1111000000110100
1001011100000
1001000011
1111110100011001
1110001110010001
1111110000000001
1111101110101000
100101111101
1110111101110001
111110100110
11010110111
101100110
1111101000110000
1110101101111001
1101110000000010
1111101001100000
1100001111
1111101110110101
111110011001
1111010011011101
1111100011110101
1111110111001111
1111101110001110
1111010001011110
