111001001001
1110111101111100
100010000011
11111011
1111011011111000
1110011101100111
100001111111
1110111101000101
1111011101100100
11000101
1110011111101
101111110001
11000101110
1110101011011111
1111111101101011
1111001110011000
1111000111110011
1000000000001
111010101001
1000100101101
1001010010010
1111000110010100
100110101100
1000011001011
100001010100
1001000010010
1110111101101010
110101100110
100010001100
1111110000111000
