11110100
1110101001001100
1111110
1111101100001101
1111000001110
1111111011000111
110100000001
1101110001010101
1000111001111
11111111000
1110111101011001
1110111110000110
10001110110111
1111101110111010
1101111011111
1110011100001111
1110110010010010
1111110100111111
1110011101111001
1110011010001001
111100101110
1111111010111100
101000111100
1111011101001011
10011010010110
1000100011111
1110010011110010
10011011101
1110100110100001
1111001100001000
