1111011011
1010010110101
111100100
1010001110111
111110010110
1011000001000
1100111001001110
1111001110011001
1111001111010101
10000010001001
1111111001111010
1110110000110010
1110101000011001
1110001100110
1101000111010111
1000001101
1101100101
111010
1110111010100
1111100011010011
1110001011001111
100110001
1101110111100
111100101011
1111111101111010
1111111011101111
1111110101
1011011010101
1010100110110
1111100101010001
