1111110110110101
1111001100111010
110010010
110011001001
1010001000000
110111110
1101110001000
1110011011011000
1001000110011
11001011001
1011000
1111011101111010
1110100101111010
1111011011100011
1000010001110
1110111011010
1111010000100111
1111101000001111
1111001110001111
1111010101101000
1011001100
100001010
111001101
1110110101101100
110101001
1011111010011
1111110110001010
10001000101000
110010010110
1111100111010101
