11
110
1111111111110011
10011
1111111111011011
1111111111001111
10111
1000
1111111111011001
101001
100110
1111111111111111
10001
11001
1111111111100111
11111
100100
1111
101010
111
1000
1111111111010110
10010
110
1000
10111
1111111111101011
1111111111111110
1000
1111111111110100
1111111110111110
1001001
10010
10100
1111111110100011
1111111111010001
10010
11110
1010110
1111111111101101
1000110
0
10111110
1001000001
10010
1111111111101111
1101
110
1111111111111100
1010111
1010010
1111111111101110
1111111111111110
1111111111001010
1111111111110111
111
1111111111101001
1111111111011100
1111111111000001
1111111111111100
1111111111111111
1111111111110100
1
1000110
100010
1010010
10100100
10010110
10001011
1000011111
1011100011
11000101001
1110011011
1011111110
1100011111
1010101110
11001101
11000100
1111110
110101
1111111101111011
1111111110011000
1111111111111011
1111111111111100
10110
1111111111011001
1111111111110101
10100
1011
1111111110011110
1111111111110111
111100
1111111111001101
0
1001010
1111111100110110
1111111100100000
1111111110101011
111110001
10001010000
1011101001
10000001011
111010010
110000100
1010111
1111111111110001
1111111111101110
1111111111100000
1001111
1001000
1
1111111111011101
1111111111001001
1111111111111101
0
1000000
1001
1111111100101111
1111111011101001
1111111101110100
1111111010100010
1111111111110101
1010110
10101110
1111110100100000
1111111110010110
11111100
10011101001
1100101101
1110000001
1000110100
1111111001101111
1111110000101000
10111011
1110010100
1110100100
1000001110
1111111100110010
1111111100000110
1111111111101110
100110
100001
1111111111011011
1111111111111100
1111111111101101
11001010
10101101
1111111100110100
1111110110111100
110100001
1110010010
11001100001
1011111100
11010000
11000100001
1001111000
1111110010111011
1011001101
1111111101100111
1111101
1101111101
1011010
10010011011
1010001010
1111111011100110
1111110111001101
1111111110100101
1111111111100011
1001
1111111111101000
1111111111110001
1111111111000000
1111111111100001
11110010
10111111
1100110010
1010001100
110110010
1000011111
111100100
1111111000
1101010
11111110
1101100000
1111111000011000
10010100001
1100110110
1111111000000011
1111110000
110100100
1101110010
11001101
110000010
1111110101101111
1111111111011000
1111111110000001
0
1111111110010011
1111111011111010
1111111100101011
1111111011011111
100111
1111110111000001
1111101111100001
1111111001000011
1110101101
10000101100
10100100010
11010110111
110000010
11000010100
10100
11111010
1001001110
1111111000010011
1111110011011010
1111110010001100
1111100100001011
1111110110010000
10011111111
1110111001
1000101001
1111111010011010
100100
110
1111111110110010
1111111100111100
1111111100111011
1111110011101110
1111110111001000
1111101010110111
1111011111101110
1111100001000011
1110
1111111010100111
1001101
1101000
1110001000
11010111
1101100001
101100010
1111111001000101
1111111101011101
1111111001001000
1111110110111010
100101100
1111110001001011
1010110000
10101110111
111110111
1111111010100011
1111111111110110
100001
1111111111101001
1111111110101100
1111111010000111
1111110111000111
1111100010010111
1111110111001001
1111111000000110
1111110100111011
11101001
1111110011110101
10111111
1111101111111110
1111111111101011
1011110000
1100010011
1111111010001011
1111101010110101
1111101010
110010111
1111111011010010
110011010
10111111
1111111111010000
1100001011
1111111001100100
1111111101101101
1111111111100110
1111111111101101
100000
1111111111101111
1111111111000000
1111111000010101
1111101110011111
1111111110100111
1111111110000101
1111111000100110
1111110111000101
1111011101101110
1111110011111001
1101111011
10000110
1111011010
100101111
1000010000
1111111100001000
1111111111111101
101100111
1111111000110000
1111111011111000
1111101011111110
1111110
1111111101000100
100011010
1101001
101
1111111111111001
11101
101101
1100011
1111110010100001
1111110001110000
1111110101111011
1111100000101011
1111101011011100
1111110000110111
1111110100111001
1111111011000100
11000101111
11001100111
100101000
11001010
1000100010
1001001010
1111111010010110
1111100100001000
1111110000001100
1111110010011101
1111111000010110
1111100
1111110100011001
1111111000101101
1111111100111010
1111111110101110
10111
1111111111111011
1111111110010101
1100101
1111111100100010
1111110110101101
1111111100111011
1111110011000111
1111110011011110
11001010
10011011101
101110100000
111000110101
110011001000
1011001101
10001110
1111110011100001
1111101010100110
1111111010101001
1111111101010100
1111111100000011
1111110011111010
1100100001
1001100111
1111101101011110
1111110101000000
10100111
1111111110001011
1111111111101100
1111111110111010
1111111111000001
1000101
1000101011
111010011
1100111011
100100001100
10111001001
10111010000
1001100111111
1010010100000
101111011111
1100001
1111100111010001
1001111011
1111111101010010
11101010
1111111111000111
1101110011
1010010000
1000001111
101110
1001011
1111110111010101
1111111110001111
1001101
1111111101000001
110101
1111111111111111
1111111111010010
100110010
11000000000
100101110110
101100010110
1000101101110
1100100001110
1100010011011
1001101101101
1000111001
1111110011100110
1111100111100001
1111111000100011
1010011110
111110101
1111111010100011
111110011
1101110110
100000111001
11010101010
1101111010
1111111100111110
1111110111101001
1111111010110000
1111111011000001
1111111111011010
1111111111100101
111001
1111111110100011
1101000011
11011011111
110001000010
1000011110011
110101101011
111001100110
100110101100
10011001110
1111010011010100
1111001101110100
1111011110011101
1111111001011011
1111110000001111
1011010110
11000010
1111111001011110
1101011010
1100000011
1111111111101011
1111110111101011
1111111100001100
1111111011001101
1111110111110000
1111111111000000
1111111110011011
1111111111111001
1111111111011011
1111111111010010
1001000110
11101010110
110110110110
111111011110
11010101111
1111111100011011
1111111000101010
1111111110100001
1111011010010011
1111011011111110
1001111
10000101
1001001
1111111010100100
101000110
1111110101101001
1111011011000001
1000101001
1111110101101110
1111111111000001
1111111010110010
10100101
1111111000101111
1111111101100001
1111111111111010
11
1111111111101100
1111111110001011
1000101111
1010010001
10100011111
11001000011
1100101000
1111111000000001
1010010000
1111111100011111
1111010000110101
1111100111000110
1111101011111111
10000101
1011111101
10001110
1111111101001100
11001001100
1111100100000011
10110001
111000
1100010111
10000011100
1101011011
1111111011001010
1111111101011101
1111111111010101
1111111111000110
1111111111010110
1111111110100011
11011000
1111111111111001
110101
111101001
1111100110001100
1111111011110101
100
1111101110000100
1111100011100001
1111100100011011
1111110010110100
1111111100010001
1111110100001110
1111101111100000
1111110111010011
1010110000
10011000
11000011000
10101011010
10100100
100111
111010100
1111111010110010
1111111110011111
1111111111110110
10010
10111
1111111111011111
1111111111111010
1111110010101011
1111111100010101
1111110111110001
1111111001100101
1111111001000110
1111110101001101
1111101101010000
1111101011001001
1111111011000100
1111110010110110
1111111111101101
1111110010000000
1111110010001000
1111101101101100
1010001
1011110000
11010101100
1101101011
10101111
1111110111000110
1111111111101110
1111111100100011
1111111110101000
1100010
1111111111101110
11111
1111111100100010
1111110110000101
1111110110111111
1000011011
1111111011100111
1111100111100100
1111110111100000
10000010100
1111110010010110
1111100010101011
1111110110101100
1111111000110111
1111110011101011
1111101001100111
1101010110
11110001
1111110110100101
110
1111111110000100
111111011
1111111110101000
1111110001111111
1111111101000111
1111111100110011
1111111111111010
1010001
1111111111101100
10111
1111110111001000
1111110010000010
1111111011011010
1000101111
1111110110001111
1111110011110111
1111111001100110
1111111100101011
1101101
110000011
1111101011001001
111100
1111100001011101
1111111001101000
10000011100
110000
11001
1111101001101101
1101100
1001000
1111110000111010
1111110001110110
1111111010000100
1111111100010000
1111111110100011
1101
10011
110101
1111111011010110
1111111100000111
1111111111101010
1111110100100011
1111110000011000
1111110011011111
1111111111001011
1111110101111000
1111110100011010
1111101111101000
100001100
1111110010001010
1111111100110101
1111111111100101
1011101000
1111101011101110
11011111
1111110110111101
1001011100
1111111100011101
1111101101010010
1111110011011010
1111111001110100
1111111011100101
101
1111111111010101
11010
1111111111000100
1111111111111000
1100101
110011110
1010100001
1111111100110001
1111110110100111
1111111000100100
1111110001100000
1111101111110111
1111100101011011
1111110110001001
1111110011000010
1111111010011001
1111111101011110
1111101010000111
1111110001010001
1111101011011000
1111111101101101
110110
1111100010000110
1111101001111110
1111101110110111
1111111011011011
1111111100001010
11011
1000010
110
1111111111100111
111001
1111111111011010
1111111111110010
110110001
1111111101110001
1110010111
1110001001
1111111101101010
101100001
1111111110010110
111101011
1111110111100001
1111101101101100
1111110001111000
1111110111001111
1111111101001101
1111111010000110
1111100101101010
1111101100111100
1111101000111000
1111111110101110
1111111101110000
1111111010001011
1111111100101110
1111111111110100
1111111111110000
1111111111111010
1111111111110010
1111111110101110
1111111111110000
1111111111100111
1101011
1111111110101000
1100010101
1111000000
1001011110
110010
100110101
1111110100101101
1111111111010000
1000001
1111101111111001
1111110111001111
1111111101110101
1001111
1111110101111001
1111111110110000
1000000111
110100000
11011101
1101001
1111111111101100
100
1111111111011100
10
1000110
1111111111110110
1111111110111100
11111101
1101101000
1100110111
11111001
1001111010
1110110110
1000010111
1010100110
1010011101
1111111110001111
101101010
111100101
1011010101
1101101000
1000000011
11111111
100110110
110101010
1010111
1111111111111110
0
10111
1111111110111111
1111111111110110
1100
101
1011010
1101
1111111111010010
1111111111111101
1111111111100111
1001
1111111111001010
1111111110000011
1111111101110100
1010110
10011001
1111111110011000
1111111111001010
1111111101101001
10011
1111111111010101
11011101
0
11100
1001110
1001101
111101
1111111111100111
1111111111111000
1111111111000101
1111111111010110
