100111
1110
10
101011
11011
1101
1111111111111100
1111111111011001
1111111111110011
1111111111101111
1111111111101011
1111111111110010
100001
1001
11011
1011
1111111111101001
1111111111101000
1011
10100
1001001
1111111111111100
1111111111111011
11
1010
1111111110110101
1101
1111111111110111
1101
110
11111
1111111111101100
0
1111111111101011
100101
10101
1111111111101000
1111111111000110
1111111110111000
1111111111001011
1111111111011001
1111111111000011
1111111111110011
110111
1111111111101110
111
1111111111100000
1110
100000
1111111110101011
111
11001
1111111110111111
1111111111111010
100010
1111111111110001
1111111111111010
1111111111111010
1111111111101000
1011111
1010
1111111111001110
1111111111011010
1111111111011000
110111
1111111101110011
1111111110100001
1111111110010010
1111111110010110
1111111110010110
1111111110000001
1111111110111100
1111111110101001
1111111110101100
1111111110111001
10101
1111111110101000
1111111111101100
1111111111000111
10110
1111111111110101
1111111111011011
1111111111110101
10111
1000
111000
1111111111000100
111100
100100
10000
11011
1111111111110000
1111111110011101
1111111101000000
1111111011011110
1111111010111001
1111111110001000
1111110101111101
1111101110100011
1111110111011001
1111111001101100
1111111101111000
1111110010011000
1111111110111000
1111111100000011
1111110111011110
1111111010110101
1111111011111011
1111111011110100
1111111101000010
1111111100000001
11
1010001
0
1101
1111111111100010
0
0
1
1111111101111000
1111111110000110
1111111001000110
1111110001100001
1111101110010100
1111101101001100
1111111000001111
110100010
10001111
10010010100
110000000
1111110110101111
11010111
10001100100
10110101
1111110111110111
1111111011101000
1111110111110000
1111110101111001
1111111101011110
1111111111100010
1111111111110101
1111111111101100
1
1000011
1111111111111111
101110000
111101
1111111011001100
1111110011110011
1111110100000101
1111101100010011
1111100010110111
1111100101111000
1111110110001000
1111111001010000
1111100101110101
1111110011101101
1111110000111000
1111110010110001
1111101100111100
1111110001000001
1111111111100110
1111111101100111
11100111
100101
1111110101101110
1111111100000111
1111111111100000
1111111111101001
1111111111100111
1111111111000100
100111
1111111111111101
1111111110101100
11000110
1000000
1111111111010110
1101
1000010
1111111100011111
1111101000001001
1111110010000111
1111111000010001
1111110101010111
1010111101
1111000001
1111111011011001
1111110001111110
1111101101010000
110000110
11011101
11101001
1111111011011110
1111101110010011
1111111100111111
1111111110111111
11001
1000
1111111111011000
1111111111110100
1111111011001011
1111110111111010
1111111011111100
1111111111000011
1111111111001000
10101110
1111111000000110
1111110101010011
1111101101110001
110001110
1000010100
1111110110010000
101000011
10110110
1111110100011000
1000001001
1111111111111011
1111111010100000
10011010
1011101
1111101010011111
1111100111100000
1111111101010110
1111111110111111
101111
1111111111100011
1111111111010101
1111111110000001
1111111000111001
1111111000001011
110100001
1010111100
110000001
101011011
1111110111110010
1111110011011000
1111110101110100
100101000
1110000011
11000000
1111101001110110
1111111011
100000011
1001110101
1111110100000110
1111101101110011
1011
1111101000001110
1111101011000010
1111110110110000
1111111110100101
1111111111101101
1100
1111111111010110
1111111111000110
1111111110001000
1111110111011111
1111110101111100
1010000110
110010000
10111011001
111101111
1011111
1111110000111100
110
1111111010011101
10011010100
10111101
1110111111
10100000100
1010000101
11101100
111011
1111110111100111
1111110101110101
1111100111010000
1111110100001111
1111110000100010
1111110111101001
111010
1001110
1111111111110100
100001
10010
1111111100111100
1111110110110000
1111111101110010
1111111001001000
1101101000
1000101110
1111111111010001
1111110010100111
1111111010101001
1111111011010011
1111111010001100
1101101111
100011010101
10110000
1001111111
10110100110
1001000101
1111111110011100
1111110100111111
1111110001101101
1111111100010011
1
1111111101110101
1111111111110111
1111111111100001
1111111111110100
11110
11100
10101110
1111111001100000
1111111000110011
1111111101010101
10100111100
1111110111010100
1111111011111101
100000000
10001100
1010100101
11101001110
1101100010
11110001101
1101110001
10010101000
1001111101
1110111110
1101101100
1000110000
1000100101
1111111111010101
1111101
100001
1111111111100101
1111111111011111
11100
1110010
1111111101111001
1111111111011000
1111110000000111
10111110
1011111101
1011101100
1111101110011001
1111110110101110
1010101001
110110001
1011010001
10111010010
101101110
100001110111
1111111000111011
1111101111010001
1111100110000110
111000110
1100000001
1111111100011110
10010001
1111111100000001
1111111111001111
1111111100111111
101000
1100
1111111111010010
11011
1111111101100100
1111111110000011
1111111011011000
1011001100
1100111111
1000101
1111110110000010
1111111001011010
1000010101
11110101
1101001111
101001111
1111101010111001
1111111000101100
1111110000111001
1111101001101010
1111110001010011
111110110
1111111001101111
1111111010010111
1111111101101101
1111111111110001
0
1111111101100001
1111111110100001
1111111111010001
1111111111110010
1111111111110010
1001011
100110101
110101011
110001
10100100
1111111111110111
1111111011001111
1111100110100011
1001110010
11110101111
1111111001110111
1111111011001000
1111110001001110
1111111010011011
1111110010100000
1111111110101000
1111111101001110
1111110101000110
1111110110100101
1001101
11110011
1111110100110111
1111111010001101
1111111101001110
100111
101
111100
1111111111111100
11110011
100001010
1111111100010100
1111111100011111
1111111110001110
111111111
1111111110110101
1111111001101001
11000000000
10100100010
1111111010011111
1111111111100111
1111110101011011
1111110101111000
1111101111000110
1111110010011011
1111110101100110
11110001
1101010110
1110110110
1100010
1111101100001110
1111110000101101
1111111101110000
1111111110110111
1111111110110110
1001100
1111111111100100
11010100
1111111100101001
1001101
1111111000010110
1111101101011110
1110110111
1111111010010010
1111110111000001
100101011
1111111000101011
10111010000
1111110110111100
1111101011100011
10001100101
1111101100110101
1111101101110101
1111110101100100
1001101011
1010101001
1001100010
1111110110101000
1111110100110100
1111110000111100
1111111000111011
1111111111110001
1111111111111110
1111111111110010
1111111111110100
1111111110000000
1111111010101001
1111111110010001
1111110111001010
1111101100001100
1111111110111001
1111101011101100
1111110011101101
1111111001001010
100010010
11100110010
1111110100100100
1111100100001101
111111011
1111100001011010
1111110101000010
1111110011110011
1001011111
1001111101
1000110110
1111111111100110
100101
100011001
100000
1111111111010110
110111
1000000
11111
1111111001001100
1111110110110100
1111110010101000
1111101011100011
1111110000110001
1111110010001101
1111101110010111
1111110011001000
1111101111011000
110011111
11100101100
1111011110000110
1111011000010001
1111100101010001
1111011101010100
1111111000001110
1111111010001010
10000100
1111110110000100
1111111111001110
1111111111010010
1111111101001001
100011001
110000
11100
10010
1111111111011010
1100
1111111010000000
1111110010011000
1111101110100001
1111110100100101
1111111101101110
1111100
11011111
1111111000001000
1111111110101110
1010101100
11111111011
1111100000001101
1111001101001001
1111011111001101
1111100011000010
1111111101111000
1111110000110001
1111110000100011
1111101111110010
1111111000111011
1111111010010110
100001100
110110111
1111111100000000
1111111111100010
1111111111111010
1111111111110011
1111111110110000
1111111000110001
1111101111100101
1111101000100000
1111110000001000
1111101110111000
11001111
1111111010101100
11111001
10000111111
101011000111
1010101001
1111011100010111
1111011010110011
1111011111011010
1111100110010000
1111110101001000
1111110011111000
1110111
1111111001101100
110111
110110010
1101010011
1010001000
1111111101110000
1111111111111000
1111111111110101
101
1111111101111110
1111111001111101
1111111001000001
1111111111111000
1111110011001000
1111110110000010
1111111001011110
1111110001011110
1011101101
10010111
1111010011
101101011
1111101011101101
1111011011011000
1111010011111101
1111100000000000
1011011
110111010
10001000011
110110100
100011000
1010101100
10100001111
101011110
1111111111110110
10100
10010
0
110100
1111111111100100
1111111011010001
1101010111
1100101011
1111111101101010
1001000100
1111110001100000
1110000
1111110111001100
1111111111001010
111111110
10010000000
1111100011011111
1111011111000010
1111110100010100
111
1010000001
1001111001
10011
1001001001
1101111100
110111110
11001110
1000
101001
100110
1100
1111111110101011
1111111001011111
1111111011001011
10000101000
11010010100
10101000000
1111101000
1000110
101110
1111111010100101
101001101
1000011100
11001001
1111101000010101
1111101000100111
1111101100111111
1111110101001100
1111111010101111
11011011
1111110101110111
1111111110001001
101110101
110001001
101111
1111111111010000
100001
1111111111110110
100000
11
1111111100101011
101001111
1101110001
1000101110
101000101
1111110101100110
10110011
10100010001
1011110111
1111101110110000
1111110101000111
1111110100100101
1111100100101011
1111010100101010
1111011010110111
1111100010000011
1111110100101010
1111110110011001
1111111000111011
10100101
101111110
100100100
10011
1111111111001111
1111111111001100
101011
1111111111011001
1111111111101000
110110
1011011001
1110100100
1111111110001011
1111111010111100
100000001
1010100111
1111111111010010
1000000101
1111111000011110
1111111010110011
1111110000011101
1111100011001011
1111100111101001
1111101111000111
1111110000100101
1111111110001011
11110000
111010101
11001101
10010001
110011
1111111111011001
11000
1100011
101
100001
111101
1111111111111110
10000111
10100111
101010100
1010100010
111011111
1010011111
1000100000
100110110
1000000000
1011110
1111111111000110
10001001
1111111101000000
1111111011001010
1111111101000001
1111111111011001
101011111
110011111
1100111
100
110111
1111111111010010
1111111111111110
1111111111111100
11011
1111111111101111
10100
1111111111110001
1111111111111001
10011
100011
1001111
1111111
100011
1101111
1010100
111101
100011
1000100
110100
10001
1111111111100001
1011000
100
110101
11101
10000000
11101
111010
1111111111100100
100000
110010
