1111111111000110
10011
1000
11100
111010
111010
1111111111001000
1111111111001011
0
1111111111100110
111111
1111111111110010
101110
10
1111111111111100
1111111111101110
11
100000
1111111111100011
0
110001
11001
10001
1100
10101
1111111111000010
1111111111010111
1111111111110011
1111111111100111
11011
1001000
1111111111110010
1111111111101010
10100
110011
1011110
100111000
10011011
1101011
100110000
101010101
11010001
11101
11001111
111100100
100101111
1100
0
111101
10011001
10011111
110000
1111111111111110
1010
1111111111010101
1111111111100000
1111111111110101
0
1111111111110011
10001
1111111111111010
10
1010
11010100
111010100
111011010
1010101100
1010010100
1110001111
1101111010
1100100011
1010010110
1100011011
1000010110
101110011
100110001
11010011
1010
10011001
100110
10101
1111111111110000
1111111111101101
100010
1000111
1111111111110001
10001
1000011
1111111111111100
1111111111111001
11011110
1000010101
10111001101
11011101101
10111100111
10010010000
10111010000
100010010001
11000011110
10100111111
1010000011
10111101
11000101
1111010
110100
1111111101101000
1111111111100011
1111111111100101
110
100001
1
1111111111111010
1111111111011001
1001
1111111111011100
1111111111101001
10110
1110011
101101111
1111100010
11010111100
100101010111
100001010010
1011011010
1100000001
111001110
1001011110
111101001
1111110111100000
1111110110101011
1111111101000100
11011111
1111111010110111
1111110000110010
1111101100101010
1111110101011011
1111111001101101
1111111011101101
1111111111110011
1111111111101000
1111111111111111
10101
10101
1111111111110001
100010010
1111111010011111
1111111011110111
1010100001
10011001001
11101110011
100001000111
10100110001
11001111000
10010100000
1001111011
1111111100011001
101011000
1000101101
1111111100110011
1111111010110011
1100
10111010
1111111000101111
1111110111001001
1111111101010011
110010
1111111111101101
1111111111010111
1111111111010000
1111111111010110
100011
1111111101111010
1111111111011000
1111110010111001
1111111100101101
1110000101
1000001000
110110111
1001010001
10010000010
1000011011
10100101110
1011111101
1111111101000100
1111111
1011110101
11100011
1101010110
11100
1010001101
1101101101
10110000
11000110
1111111111110010
1000000
0
1111111111011100
1111111111000111
11101
1111111100101010
1111111111001001
1111110011001100
1111101110111010
11011010
1010011110
1111111101011111
11011
101010000
1001101000
111000001
10101
1111101101011101
1111110100011110
1111101001111101
110010100
11001101
1111110110000110
10100110
1111111010000110
1111111111111000
1100011010
1001100001
10101
110000
1111111111100010
111
1111111111111011
1111111101001010
1111111100110011
1111110000010000
1111100111101000
1111111100100101
1111110001111110
11010111
110100101
100010101
11000000011
1111111001101101
1111110110010001
1111110010110001
1000000011
1111110011000101
1111111000010101
11001111001
1111111011101111
1111111010011101
11011111
1100111101
10011100000
1011101101
1111111
101001
11111
1111111111011111
1000
1111111011001011
1111111101011100
1111111010001011
1111110101010001
111001101
1111111001101110
10001111
1111110110111101
1111111110100001
1100010100
1010101111
101
101111
1011000011
1111111011000011
1111111111101001
10010010000
1101101111
1111111100111011
11010001
1010010001
10001001111
110011101
1100110
1111111111101000
1111111111101000
1111111111011000
10010111
111011
1111001
1100100111
100010101
1111101111011101
11001101
101101011
111100111
10001001011
10100001
11111011001
1111111010111000
1110010
1111101100011101
1001100111
1011011
1111110110111010
100111000
1111111001100111
111111001
1011100010
1101000101
1111111110111011
10000101
11100
1111111111110110
1111111111111111
1111111101100010
1111111010111000
1011010
1111101111
1111110110100011
1111101000110100
1111110111001101
1111111010011011
1111111110010001
101010000
111000110
1011101100
1111111000001110
1111101100100110
101101
1111111101100011
100011011
1111111010000101
1111111001000011
1111110111110110
1111111110010110
1110001111
11100000001
100000111
1001001
1011
1111111111111010
1111111111100111
1111111101110101
10001
11111001
10000100111
1111111100111100
1111110101100001
1111101011001100
11000
100000000
110011010
11010100000
10111110111
10011101000
1111100111001000
1111110100100110
10000100
1000010
1111101111111101
1000011000
1111111111000011
1111111101100010
10011001100
11000010011
111110000
1001
110101
1111111111001101
1111111110110011
1111111100011111
111100
1111110100001001
1111111111111010
1011100000
1111110111101000
1111110101010010
1111110000110110
1111101001100001
1111111001110011
1110101000
100010110010
10000010100
1101101101
1000100000
1111110110011101
110000010
11110010
1001001110
110011110
100111010
100000010000
11100110110
1010110110
1011111
1101011
1111111111011100
1111111111110000
1111111110110010
1111111110011111
1111110101001100
1111111100000100
10101110
1111111101111010
1111101100010101
1111101100110100
1111111110111001
1111110100111111
1100001000
11010110001
101000111
11111011010
11111001
1111110101010001
1111110010101001
1111110100000111
1111110001001011
1111111011101011
1111110001010111
1101011110
10000111011
110101000
1101111
11001
1111111111100011
1111111111010111
1111111111011100
1111111011111011
110101
111010
1111111010001011
10010000010
1001110110
100000100
1111110000001000
1111111110001011
11000010011
100111001110
10001000100
1000100000
1111110100101001
1111101001110111
1111111110111001
1111111100011110
1111101101110100
1111101011001101
1111101111000100
1000011100
10101101000
10001000111
101111111
110000
11110
101001
1111111100101010
1111111111111110
1100010100
100100011
110010100
1111111110100111
1111111111000111
1110111101
100110000
1111111001010001
100101000
11001111010
10110000110
1111110110100000
1111111111011010
1111100111000001
1111101000000100
1111110010000100
1111001111001100
10100101
1111111101010101
1110101
1111011011
10101110110
110010111
1111111111101011
111100
1111111111110101
1111111010110101
1001000111
1011011011
1110111010
1111110111010010
1111110011100011
1111111110100001
11101000
1000011111
10100011101
10010000101
100000111010
1111110010110111
1111101001110100
1111101000000000
1111100011100011
1111011100010110
1111111001001100
1111111111001010
110010010
1111111010101011
1001101011
10000111010
10101101000
10101101
10011100
1111111111011101
11
1111111110011100
111100110
1001101001
10001001101
10111110
1111110010011101
11001101
10
1111111110101100
1110010011
100100100110
10110110010
1111011101011010
1111100101011101
1111111100010101
1111101011111010
1111111010110110
1111111111110000
1110101
1111111100001000
110100101
1011011100
1110000000
1010001001
111101
1111
1011
1111111111111101
1111111110000110
110100001
1111111100101001
100000000
1000000010
1111111101101000
1111101000101110
1111110000000010
110010
1011010110
10110001000
1111110011011000
1111001110011010
1111101001011011
1110000101
100011111
110100000
1111111000110111
111000000
1111000001
100111000011
1110110111
10001101
11011101
1001011
1
10000
1111111111101010
1111111111101111
11010101
1111111010101111
100110
1101111111
10100010101
10111001000
11000100011
110100110100
111001001111
11100011101
1111111010111111
1111011010000101
1111111010110111
1000101
1111110110001111
1011000001
1110111011
11011111111
101000001110
100101111000
1111111000
1111110101011100
1111111110000101
100000
100100
110
1111111111110101
1100100
100000101
1111111111010101
1111111110000011
1101010000
11110010110
100001001101
110010010101
1000011010110
101110101001
1111000111
1111101110110111
1111101110100000
10100111001
1111111010110101
101010100
10011100011
1111111011101011
10010111111
1111000100
1101010110
1010100
1111111000100000
1111111111101010
11100010
1111111111100100
0
1111111111111110
10110
10111011
100000
1111111110010011
1010001001
11101000101
11100001011
10111000110
11000010110
1011000001
1111100111010011
1111011011011011
1111110100011011
1111101010100100
1111110100100100
1001110100
1010110101
1111101101000111
11001000
111110001
1100011
1111111001000100
1111111011011110
111010
1111111111111000
1111111111111111
10100
10110
10100
1001011
1000110
11000
1011010010
11100000010
100001011101
10111101011
1010011110
10001000101
1111110110010001
1111110001011010
1111101101001111
1111110011010010
1111101000101111
1111111000001101
11010111
1111111011001111
1111111011110111
1111110011111000
1111111110000100
1011011
110110010
10101
1111111111101011
1000100
1111111111101011
1000110
111000
101101
1111111111001110
100011100
1110111110
11000001100
11000101101
100101010000
11111000001
10010110010
1101111110
1100001010
10001110000
1111111010101110
1111101011110100
1111110110011111
1111111000001010
1111111101100001
1111101110001000
1111111001011111
1111111100111001
110110
111001101
10010111
11100
1010
1111111111011111
1111111111101011
1111111111101110
1111111111101011
1111100
100101000
1011001011
1101101010
101110101
1001011010
11001110001
1000110000
1110011011
1111110110000101
1111101000001101
1111111000110110
1111111111011001
10010011
1111110000101101
11100001
1111110011010010
1111111010000100
1111111011000111
1111111101100110
1010010
110001
11100
1111111110110101
1111111111111001
1111111111110100
1001
1111111111001011
1111111111100001
1001111
101001
101110
1111111011000001
1111110110101101
1111111010110001
1111111101000011
100101001
1111111101100010
1111101101001101
1111111001111100
1111111111101100
1111111011001100
1111111001100001
10111101
1111111110000101
1111111111101010
1111111111110111
1111111111110100
1111111111101001
0
111110
101
11111
1111111111100000
111010
1111111111010011
1111111111111100
100111
1111111111101110
1111111111101001
1111111111111011
1111111111101010
1111111101101010
1111111111001101
1111111111011000
1111111110011001
1111111101011011
1111111110001101
1111111100101110
1111111100101101
1111111101100101
1111111100001011
1111111110001011
1111111110010101
1111111110110100
1000010
1111111111101000
1111111111010101
0
1111111111101101
