110011
1111111111101110
1111111111011110
111000
1111111111010010
100110
1011
1111111111010010
1010
1111111111100011
1111111111101100
1111111111110010
110
1111111111100110
110000
1111111111101011
1111111111101100
1111111111111000
101
11100
1111111111110101
1011
1111111111110100
10100
1111111111111010
1001110
101111
11110
101100
1111111111101001
110001
1111111111001111
1111111111110110
1111
1111111111100000
1001
1111111111110101
10011
11110
10100
110
1111111111010000
1111111111001101
1111111111111001
1111111111101000
1111111111100010
1111111111010110
1111111111011100
10101
1111111111111000
0
1111111111100101
110111
10010
101010
10001
1111111111100100
1111111111101110
11110
1111111111101100
1111111111101000
1011
1111111110111001
1111111111100111
1111111111000000
1111111101110000
1111111111001001
100101
1111111100001111
1111111000101000
1111111010010000
1111111110000000
1111111110010110
1111111111110111
10110001
100100101
10110101
10101111
1110101
1111111111110101
1111111110000011
1111111110111100
1111111111100010
11100
1111111111001000
1111111111001111
1111111111100000
1000
1
10100
0
1111111111001011
1111111011000111
1111110110110011
1111111010001101
1111111101110011
1111111110101110
1111111010110001
1111110011010000
1111110110111010
1111110000010101
1111111010101011
1011001
10000111
1111
11001000
10111111
11000
1111111110101010
1111111110100101
11111
11
1111111110010000
1111111111111010
1111111111110111
11100
1100001
1111111101111111
1111111011101011
1111111001001101
1111110100110110
1111101111111101
1111111000100000
10001100001
1100110011
1111111111010101
10111011
1111111101110010
1111110010100010
1111110001011100
1111110110100111
1111110000100010
1111110010011011
1111111011010101
10100001
100100101
101001
1111111110101001
1111111111101101
1111111111011011
10011
1111111111011110
1111111110111101
110001
1111111110001011
1111111100001111
1111111110111110
10010
1111110011100110
1111101100010101
1111111111000010
1111111101010101
1100011101
100110010
1111111001000011
1111101110001011
1111101011010010
1111111000011110
1111101011000100
1111111111101101
11101010
1111110101101000
11101001
1111111110011001
1111111111010001
1111111111111111
10011110
1100
101
101010
101011
1000101
1111111101000011
11101111
101001110
1111110111100101
1111110111111110
1111011111111101
1111111111001011
100101010
1111111110001100
1000110101
10010111110
101011111
1111110100100010
1111110110010011
1111111110010111
1010110111
1111111111101111
1111101
1101001010
1100000110
1001001000
1010110110
11000001
10010
1111111111110010
11110
1100
1111111101111001
10100000
1011100110
1111111001011110
1111101110110111
1111110101011010
1111110110000110
101101011
1111111101110100
1111111010101100
1111101111100010
1111111100110010
1111110111010011
1111101001001110
1111101111111011
1111110111000000
110000000
1111111011001100
1111110111101001
101011010
11
1010110001
110111010
11010010
1111111111100011
100001
1111111111010111
1001
11101010
1000011110
1010010001
1111110101100000
1111110010001001
1111110001101100
101010111
1111111101110000
1111111000011000
1111111010010100
11001101
1111110010101001
1111111010111111
1111111110111001
1111111101110001
1111111101111100
100000110000
1010101101
11011011111
10010100
110101010
10110101011
1101000101
100110011
1010001
1100
1111111110101011
1101001
100010100
1111111111110011
1111110001110100
1111111110001000
11111010
1111011001
10100011000
1111110011010111
1111111110000001
1111101110111101
1111101100110000
1111101110000100
1111101011000001
1111101101011110
11001001101
110111101
10110010001
10111100101
10111101101
101011111011
11101110010
100100100011
10101010111
1101010
1111111011011101
1
1111111110110000
1111111111111011
101110010
1111111111010111
1111110010100111
1111111110010110
1100000100
1000101001
1110111
1101011
100011
100
1111110001111101
1111100101001101
1111100100111111
1111110010011100
1010010001
1001010110
1100011000
1001011000
1010100101
10010100010
1110110001
10101111110
10110101101
10010110
1111111110110001
1111
100001
1111111100100011
1111111011011110
1111111101010111
1111111001000110
111101101
10000010
1000011011
1111110101000001
1111010110110111
1111100111110100
100010110
1001000000
1111110011111101
1111101101100011
1111101110100000
1111110001100001
1111101001000000
1111101110100110
1111110001010111
1100000
1111110111010010
1111111000000100
1011111001
10001011010
101011010
1111111111000000
10011
1111111111101000
1111111011110110
1111110011100001
1111110101110111
1111110101100110
1011011
1111111111111101
101110000
1111101111110001
1100101
10000001111
100110100101
10110010010
10111101100
110001111
1111110000110110
1111110010010001
1111110000100111
1111011010101110
1111110110011000
1111110001011010
1111101011111000
1111110010111000
1111111100011111
1000110
1111111101100111
1111111110110001
1111111111111111
10111
1111111101001010
1111110011100001
1111110001010000
1111111001101110
0
1111111101100100
1101010101
1110101001
1011000101
10001010011
10111001100
11100001100
101000111
1000110110
1111110001000010
1111110111011011
110100011
1111110011101001
1111011001101111
1111011001011110
1111100001110111
1111101010000110
1111110011101010
1111111010111110
1111111101010010
1111111111011101
110010
100111
1111111110000101
1111110111110111
1111110100100000
11
1111111010000011
1011010
1110110100
1111111010010101
1111110111111011
10101110010
10110111001
100010001100
11100100101
10000100000
1111110001000011
10101011001
1111111001001100
1111010111010000
1111010011100001
1111011011011100
1111100101111001
1111101000111011
1111110011011011
1111111000110110
1111111101010000
110110
100001
10001
110000
1111111100100111
1111110101010011
1111111001011011
1111111011011101
1111111101011101
100011011
1110010010
1111010011
111101101
1100011111
10101110011
11010101111
1000001010
1111111100101000
1111110010011110
1111110011100011
1111101011100100
1111100100111101
1111100000001010
1111101000010011
1111101110101100
1111110000010100
1111110111110011
1111111110010000
1111111111011010
110
1111111111111100
100101
1111111000001000
1111101111100101
1111101001110111
1111010011010101
1111011001110100
1111111000101101
10000001001
1000
1010000111
110001
111111010
1111110101001000
111010100
110100001
1111110101110111
111000011
1010111
1111101011111111
1111101101000001
1111100011001101
1111101000011010
1111101100011000
1111110110001100
1111111100010011
1111111111100111
10
1111111111101110
100
1111111000011011
1111101110110010
1111110010100011
1111011110000011
1111100011100010
1111100100110010
1111111110010101
1111110001010110
1111111111100001
1111111001010100
1111111011011001
10010100010
1000000011
1001000011
10010100
1101011101
1110111110
1111110110000001
1111111101011010
1111100011110111
1111100111100101
1111110000111111
1111111000011001
1111111101010111
1
10011
101101
11001
1111111000100011
1111110110010001
100001000
1111111101110000
1111101000101000
1111100010001101
1111100001111001
1111100110010111
1111110110101010
10010011
1001001001
1111110001011100
10100010100
10010011100
110010100
1011000000
1101010100
1001100100
1111111100111101
1111100111100111
1111101110100010
1111110011011100
1111111010011001
1111111110100000
1111111111110100
11100
11101
1011101
1111111010000001
1111111010100101
110101111
11111100
1111110100001100
1111111101110101
1111101011001111
1111101001000100
1111100111100011
1111110110010010
1111110011001011
1111110101110000
10110101010
11010011001
10100101110
10101010110
10001001001
110101
1111111001000011
1111101001010111
1111100111001010
1111101101010110
1111111010111000
1111111111111101
1111111111010110
11010
10001
101000
1111111010011010
101101101
1111111000010001
1111101111000110
1111101100010110
101110
1111110110101000
1111111001010111
1111110110001011
1111101110111010
1111110000010111
1111110110111101
111110000
1110110010
10010110101
11011001001
1110111101
1000010011
100000
1111101011001000
1111100110010110
1111101111111111
1111111011000111
1111111111001101
1111111111001101
1111111111110101
1111111111110110
1011000
1000011
1011110111
110100111
1111011
1010001100
101000001
1111111010111101
1111101111111001
11011111
1111101111110000
1111110001011111
1111101000100101
1111110100100000
1111111101001011
10001000100
1011111001
110100100
100100
1111110101101011
1111100110010111
1111101101101000
1111111010101110
1111111110110111
10011
10010
11111
1111111111100111
1011000
100100011
10001110100
1011110001
110010101
101101011
1111110100101000
1111101111100110
1111111010101010
1100101101
1111011110001010
1111111001000110
1111101111111001
101001
10011011001
10101110001
10010010001
10101001000
1111111010101000
1111011111101011
1111101010000111
1111111000100000
1111111111000101
1111111111100001
1101
1000100
1111111111100100
1111111111110111
10001001
1000100111
10000010110
10010001101
1110100100
1110010000
11100001101
10000101101
1100010110
100000011
1111110010010000
1101111110
111110110
1011100010
1001101100
1111111001000111
1111111001111101
10010
1111110101111100
1111101001001100
1111110110101110
1111111101001101
1111111111110011
1111111111000110
111101
1111111111111011
11010
1111111111100110
1011011
111111010
1000011110
111100
1111111101101101
1011001010
10000101011
100100000100
1111110101
1011101011
11011010111
1111000001
1001100101
100111
11111110
110011110
1110000111
110101000
1111111100001010
1111111010000011
11110
1111
1111111110110101
1111111111100100
1111111111011100
1111111111111011
111010
0
11101
111110
1111111101000011
1111110111111110
1111110111100000
1111111000011100
11111000
10011101100
1001110100
1111111100100101
10111010001
1100111010
1010111
1111110100001001
100000000
1100100101
1111111111011001
1001110001
11111101
1000100100
100110000
1010001
101100
1111111110101100
1111111110101110
10111
1111111111111101
100111
0
1111111111100010
10101000
11110
1111111100110011
1111110101000111
1111111000100001
1111111001101110
1111110000001100
1111110101110101
1111111110111011
111111
10111011
11000010
1100010100
1101110111
1111111111100111
1100010
1000010000
111000011
1101100
100111
11101
1010
1111111111111001
110
110100
1111111111110010
1111111111110001
1111111111101010
1111111111101111
1111111111011100
111
1111111111000111
101
1001
1111111101110000
10000
11
1111111111010111
1111111111011100
101111101
10011101
0
111111
11110
10010
1000
1111111111110011
101001
10000
1111111111010011
1111111111100010
11011
