1111111111110000
1111
1111111111110100
10000
11010
10101
1111111111101001
1111111111010110
1110
1111111111111000
10010
1111111111011001
1111111111110101
1111111111110111
1111111111111000
10100
111
1111111111110000
1111111111111100
1100
1111111111101001
1111111111011010
1101
1111111111111100
1111111111111001
1111111111100101
1111111111110011
1111111110110000
100100
1111111111110111
1111111111001111
1111111111111001
11011
1111111111111010
100100
1110
101
1111111111111100
11110
1000100
1011000
100111
10001
11111
1001100
110110
100001
1011
1000110
1111111110110010
11010
1111111111111101
10010
111011
1111111111100011
1101
100011
10101
1111111111111101
1111111111100100
1111111111110011
1111111110111010
1111111111001100
1111111110110110
1111111111001011
1111111110110010
1111111110110000
1111111100110110
1111111110011011
1111111100111011
1111111100100011
1111111000001001
1111111011100010
1111111100100000
1111111100101100
1111111101011011
1111111011110001
1111111100111111
1111111110010000
11001
11011
1111111111100000
101111
1111111111001110
1111111111000011
11
111110
1111111111110011
1111
1111111101011111
1111111101010111
1111111011111110
1111111001000011
1111110001010011
1111110000001101
1111101111101100
1111101100010100
1111110001110000
1111111110110011
1111111001111000
0
1111111001100101
1111101000101111
1111101100110001
1111111010100110
1111110110100111
1111111010001101
1111111101010001
1111111110100010
1111111111110101
1111111111011010
1111111111101111
1101
100011
1111111110011111
101110
110100
1111111101011010
1111111011100000
1111110101100101
1111110001000001
1111100101011101
1111011110101101
1111100101110001
1111101000110000
1111110010011101
1111110010000000
1111110110111110
1111111100111000
10000011010
1001000101
1111101111100101
1111110001010101
1111101111101011
1111110101011011
1111110100001100
1111110000101011
1111110110110100
1111111101001101
1111111111100111
1111111110110110
1111111111111110
101000
0
10000011
1111111100000111
1111110101100001
1111101111100000
1111101000001110
1111011111101001
1111100001111111
1111111100101110
1111111100011110
1011110110
1011
1100011011
11100011110
1001010011
101001001
1111111000100010
1111100111100100
1111100111011101
1111110010011101
1111101110111000
1111101000011010
1111110100101000
1111111101001111
1111111110111001
1111111111111111
100
110111
1111111111101101
10010111
1111111001001010
1111110101110101
1111110000000011
1111100101011000
1111011111011100
1111111000010101
1111111100100000
1111110011101010
1111111101010010
1111111000111111
1111101010001011
1111110000101011
1001100011
110010100
1101001101
1000010101
1000011011
1011011011
1111101001000111
1111100101011000
1111111001010001
1111111110100001
1111111110110010
10100
1111111111011001
1111111111100100
1111111111011111
1111111111011010
1111111001001000
1111111001010101
1111111000000110
1111100011000010
1111100111100000
1111111100001001
1111101101001100
1111110010100110
1111101011011011
1111110101001110
1111100111010011
1111110100011011
11100111000
11011101100
11111010111
1111101000
10101111000
101000001
100100111
1111110011001011
1111111100100100
1111111000011100
1111111111010010
110010
1111
1111111111010111
1111111111111000
100111
1111111011001010
1111111111101011
10100
1111111100100011
1111111011111001
1111101100010000
1111011011100100
1111111010111100
1111101111011010
1011100100
110011100
1110011001
10001000100
10011110001
11110000
10100101011
10011111110
10110000011
1001111101
1111111110101001
1111111100011011
1111110101110101
1000
1001011
1111111111110000
1111111111010011
10111
10001000
1111111101001111
100001010
1000011000
1111111111111001
1101101001
1110111000
11000001
101001110
101100011
1111110001011101
1001001110
1111101001
10010001011
11010000100
100010011010
101001001000
11011001
1001000101
1100000011
110010111
1111111110000100
1111111100000000
10101
111
11000
100010100
100001000
1111111111101001
1111111001101010
1111111010010101
1100110100
10000000011
1111101001
11011100101
10110100101
1101001111
10101100000
11100011010
10000011000
111100111
10110011110
10100011010
11101000
10101111011
1001010010
101010010
10000000011
1110101010
1111110110
100110100
1
1111111110111100
1111111111110010
111000111
1000100000
111110010
1111111101011000
101011
101111001
101010101
1111110100100011
10010010000
10101011100
10010010
11001010001
11001010101
10100100
1111101010100101
1111110011010101
1111110110010000
1111111100111011
1000001000
1110010011
1001001
10110001011
10111000100
1110011000
10100001
1111111111101111
1000100
1000111
1110111
1111101
110011001
1111111100010111
10001100001
1100111000
1111110111000101
10010100
100001111100
1001000110
1111111100111101
11001100
111111100
1111101111110100
1111010101101101
1111101010111010
110000110
1110011100
10101100010
1111111001010001
100011100
10001000011
1011111010
101011010
1111100
1111111111011101
1111111111110001
1111111111101100
1111111111001000
10011010
1000000101
10111000
1011101101
10000101101
10101010101
1010110000
1111111111000100
1111110011111001
1011011
0
100010001
1111101001011001
1111011100111101
1111100111001011
1111111101000100
1111111011011010
1111111100001011
100000110
1001100101
1000001101
110011101
101010111
1111111111101101
1111111111010001
1111111111101100
1110
100111
1110
11110
10101011
1011011010
1000000011
11001001110
10111010
11000100
1111111110101001
1111110110101010
111001000
1111110000110001
1111110101001110
1111011100100001
10110
1111110010100001
1111111110101000
1100011000
1010010111
1001010011
10111111010
1111001010
11100
1111111111001000
1111111111100000
1111111111100100
1000000
1111111111000011
1111111001010000
1111111101001000
101001100
10000000011
10011110110
111010110
1111111110111011
1111110001100110
1111101100110000
1111111111001011
1111100101001000
1111101101101001
11010101
1111110000111011
1111110101100111
1111110100111010
10001101
110100111
1111110100111000
1111111110001011
10010111011
1010100101
1111111101011010
1111111111110111
1111111111100100
11100
1111111111010101
1111111101101110
1111110110001011
1111111110110111
10101011010
1111111110001101
1111110111001001
11001011010
1110001101
1111110011111010
1111101100000000
1111101110000110
1111011010001000
1111110010101100
101010101
1111110010011001
1111111011101011
1111101101101101
1111110111101101
1111110011000001
1111100110111100
1111111111010000
1001000000
1111111011000100
1111111001101101
1111111111110011
100000
1111111111110001
1111111111101110
1111111100011101
1111110001011010
1111101101111101
1100101101
1111111011110000
11000
1011101001
11100101111
1110110011
1111100010011000
1111010110010100
1111100000001100
1101
1100100110
1111111110111100
1100001110
1111111100000001
1111111010001111
1111110010011101
1111110100010000
1111011
111100110
1111111101011100
1111111110010001
1111111111110100
11011001
1111111111101110
1101
1111111111011110
1111101001011100
1111101000111011
1111110111110101
10000111
1111110110101011
10011000000
10000100101
100000101
1111111100101110
1111011110000111
1111100011010110
11100101
101001100
11110011
1111111110011101
1111111101110101
1111101011011111
1111101101010011
1111110110000010
1100101011
1111110110110110
1111111010100100
101001010
1111111110110100
1111111111110000
100001
1111111111111101
1000
1111101101010100
1111101110011111
1111101101010011
1111111101101010
1111110101111011
1110110100
1010101000
10100101001
1111111010001000
1111101000111100
1111111011100111
1111110011011100
1111111100101010
1111111000010101
10101001
101000101
1111100101010010
1101011
1111111110110110
101100100
1111101100010100
1111111101001011
100101000
1111111111111010
1010
1111111111011101
101111
10110
1111110010111011
1111110111101010
1111111101010010
1111110110001011
1111111001010110
1111111110111010
1100010111
10010100110
1111111101110001
1111101110110101
1110101
1111101100000110
1111101111111010
1111111001011001
10111100
1111110011110101
1111110110001110
1111101100010111
1111110111111011
1111110100001000
1111101011011100
1111111100011101
100100101
1111111111100101
1111111111101100
1111111111100110
1000101
101010
1111110111111101
1111110000000101
1111111110101111
101001000
1111111000111100
1111110111101101
101100100
11110100
1111111111000110
1111110010101101
1111100101110111
1111101001010011
1111101111001001
1111011111111010
1111101110110100
1111101001011100
1111110010101000
1111101100100101
1111111011111011
1111101111000110
1111110000010001
1111111000000000
10101001
1110011
10011
1111111110111100
100100
1111111111010100
1111111101011011
1111110110001010
1111111000001111
1111000010
111100101
10011001010
10110011101
1111110101001010
1111011111100110
1111111101001011
1111111001110110
1111111110010100
1111110010100110
1111110000010000
1111110110000100
1111111001110111
1111101111000001
1111101111110011
1111110001110100
1111110010101111
1111111000101010
1111111110100111
111111
10100
1111111111100001
101011
1111111111011010
100
1110
1111111000111000
1111111011011010
110111110
1000011111
10111001
10001010001
11000111100
10000001011
1010100100
1111111110110010
101101
1111110110110110
1101011101
1011001110
1111101100011000
1111110011000101
1111101011110000
1111110010001000
1111111001001111
1111111110111100
10000100
11000
1111111111000000
10001
1111111111010010
1111111111110100
1111111111100011
1111111111111000
1111111110111110
1111111110110110
1111110111010010
1111110111100001
1111101110110010
1111110101111010
1011101000
1111111111011111
10010011000
10011111001
1111110100100110
1111110111001000
1000111100
1100010111
1111111101010000
1111110101100001
1111110100111010
1111111101001110
1111111101001110
1011110
1100011
1111111111011000
111110
1111111111011001
110111
100010
111
1111111111110010
1001111
10011110
1111111011000101
1111111010100111
1111101110000111
1111101111001011
1111111011111010
1110100
1001000010
1111111111110000
1111110011110111
1111111010001100
1110101000
1000110010
10010100
1001010
1111111111011001
110001
1111111110100101
110
1100001
1111111111111111
101001
1111111111110010
101111
101110
1100
1011
101110
1111111111011100
110110
10111
10000110
1111111101000011
1111111110101011
110100011
10000111011
1001011001
110101001
1101101110
10100101110
10011000000
1001010101
1000011001
1101100
1111111110110000
111111
11100
101
1111111110111000
1111111111000010
1111111111101111
11001
100001
1111111111111001
1011
1111111111010111
101101
1101
11110
1000111
1111111111011110
110001
10101
110100
111110
1000011
1001110
11111
1100
110010
101101
1111111111111011
110101
1111111111111001
1111111111010000
1111111111111110
1111111111100100
101101
1111111111100001
