1001
1111111111110100
110
110101
111000
1111111111111111
10
1111111111110010
1111111111101011
1111111111111001
1000001
101
1111111111101110
1100
1111111111100111
101111
1111111111111111
1111111111011100
1111111111001110
100011
1111111111010001
100101
1111111111111111
1111111111101011
10001
1111111111101101
1111111111000011
10
1011101
1111111110101010
1111111111110010
1110
110100
1111111111111010
1111111111110111
0
10110
1111111111110101
1111111111010011
101001
1111111111110110
10011
1111111100010110
1111110101011010
1111111110111000
1111111111101011
111000
1111111111110110
10101
1111111111110000
10101
1111111110100100
10000
1111111111111100
1111111111001101
1111111111000111
1111111111110011
1111111111010000
10101
10010
1000
0
1111111111000110
100010
1010101
1101110
1010001
11111
10110100
10001100
1011011
1111110101011011
1111111111000111
1110010
1111111100101100
1111111001010110
1111111101110100
1111111110110111
1111111111011010
1111111111111010
110110
11110
1111111111111111
1111111111011101
110
100101
101011
1111111111111101
1111111111101110
101100
1011
1111
101001100
1000010001
1010100111
100011011
1111110111100100
1111001
111111010
1111111110010110
1011010110
100011100
1111110011111111
1111110110001111
1111111111000110
1010101
1111111111001111
100101111
101000111
1111111010000111
1111111111111111
1111111111101100
1111111111110000
1111111110111101
1111111110110001
1111111111010101
110011
1100
100110
11011010
101100011
1111101011
100000011001
1011001111
10010110101
10101110
1111111011001000
1100100
11000010110
10011000100
1100111
1100010111
11010111
1100010110
110011111
1111110000001010
1111101111010100
1111110011101100
1111111111001001
111010
1001
1111111111100100
10101
11101
1100010
1
10111111
1001101000
1110010011
1011101011
10100100011
1000101011
1111110011110111
1111101010000110
1111110011001001
1111111001011101
10111000111
11100000
100000111101
11010101011
10110100011
10000110000
101010
1111111001110010
1111110100001100
1111111100100010
110
1111111111100101
1000000
1111111111110110
111011
11
1100100
1110111
111001110
1101110001
1111001010
11000001110
10010010101
1111111010101110
101110010
1011110101
11111001
1111111100100010
1111110011110100
1111111110110101
101100001
1101111100
110100100
10011011010
1111111100010011
1111101110000100
1111100101000000
1111111011001100
1111111101100011
1111111110111100
1111111111100001
11100
10011101
1111111110111111
10001101
1000011000
1101100000
1011111011
11011010010
10010100111
100011010
1111111110010000
1000101010
10010101101
1111111110101011
11101
1111110001110111
1101110100
1101101000
1101100
110110011
10001101101
1110111
1111100011001011
1111110001001000
1111111100000110
1111111011110110
10001
1111111111100100
111101
1100100
1111111110011110
10100111
1001100100
10
101001000
11001010011
1000011110
101110
1111110110100101
1111101110111110
1111101100100011
1111110001111110
1111110001110100
1111110110010110
1010101101
1111111110101110
110010000
1111111000111001
1111110110110000
1111110001100001
1111110001010110
1111101100011100
1111111010010100
1111111100101000
1000
11
110011
1100010
11110
11100100
101011100
1111111111011110
1101101011
100010010000
11010100111
10011010
1111111010110010
1111110001000100
1111100101000101
1111100111001001
1111111001110101
1111111111010010
1111101100010100
1111111011101001
1111111000000011
1111011101110001
1111110100011001
1111100011011100
1111110001101000
1111110011100100
1111110001001100
1111111001001001
1010
1111111111100010
1111111111101101
101100
110100
101101001
101110010
1101110100
11111011100
11000010010
10000011011
1001101110
11
1111111010111111
1111110011110100
1111110000011000
10110010101
1111111110100100
1110101001
10001011110
1111111100000110
1111100100100110
1111110001100101
1111101010000001
1111110001101110
1111110001101101
1111101011010011
1111111010101010
1111111111110011
1111111110111111
1111111111100110
1000001
11110000
110101010
100001101
1111101110
11001100111
1000001
110001000
1000111111
1100000
100110011011
1111001001
1111111111110111
1111100111
110000100
101000110
11010100
1111110110010011
101100010
1111101100110010
1111110000100000
1111101110010111
1111110010000101
1111111011100001
1111111100110001
110
1011
101011
1110000
101001000
1010110
1011011000
1110100000
11111111
1111111101010000
1111110001010110
1101101
1111111101001110
11111010000
10101
1111111000000000
1011111100
10001001110
1111101011000111
101110100
111001010
1111111111101111
1111111101011000
10110010
1111111100110011
111110111
100101001
1111111111111011
11010
1111111111011001
100110
11100001
1101101
1111111101011111
111001011
10100011100
1001101101
10000010000
1111111110001101
1111111111011011
100111110
1111101100
1111011110010111
1111100010000101
1111101100011011
10001100011
1111110110110001
11001010010
10110000001
10111011100
10111001100
10001001100
1100100111
1011001101
1101101
1111111110111011
111011
1111111111111100
1
110101
1000000
1111111001101001
1010
10001010110
10101011000
1001000001
1010110111
1111110100
100001010
1111111000100100
1111110101001011
1111101101000111
1111100101100011
1011101100
10001010010
11100001110
11010011011
10110111111
1011000100
10010111011
1100111110
101101101
1111111111011111
10000011
10100
1111
1111111111111100
1001011
101101
1111111011110000
1111110111111111
1111111110101010
10010100010
1000101011
1100100010
1111110100111100
1111111100011101
1111101011111111
110100
1111101011010101
1111101110001011
1111110110010100
1111110111111000
1111111100010111
11100100111
10100000101
10101010111
10001101011
1000010100
1010011010
110101110
11001111
1111111111111000
0
1111111111101100
111100
1111111110100011
1111111001010101
1111101100001000
101110011
11110110100
111011110
10000010000
10010100011
1111110000011100
1111101101100011
1111110010001101
1111110110101011
1111111000001010
1111111010100101
1000011011
1010011111
101001010001
100010010011
11011101100
10111101001
1101010100
1001000001
111111001
1101101
1111111111001100
1000101
1111111111101000
1011111
1111111101110100
1111111101000000
1111111101111110
1110010000
1111111001101010
1111101
100000000
1111111110010011
1111110011111111
1111111001111000
1111110111010100
1111110000010001
10100000
1111101111001010
1111111111110110
1111110001
100110001000
11110111101
11001000110
1101000111
110110000
100111011
1111111111000010
10110011
110100
1111111111110011
1111111111101100
1111111111101010
1000000110
100100100
1011010011
1011000111
110001100
1011011110
1110010011
10010100110
11111011
10010001101
1111110111010101
1001110011
1111111011000110
1111101011100011
1111101101111010
1001011001
11111111000
11100001000
100010110111
11000100001
10010000000
110101101
1111111011110000
1110000
101001
1111111111100000
1111111111110111
11101
10001001010
1111110010
111101111
1111111101110010
1111110010000010
11101111
11110110111
100011100
110011111
100000010
1111111001100100
10101101
1111111000101101
1111110011110000
1111111101110010
11010000101
100110100101
101000011010
11011011110
10000110100
1010000011
1111111110011000
1111111011100101
1010110
1111111110010011
1111111111111101
1111111111011110
1101100
10110010111
10010100000
111001011
1111111001110101
100111101
1111111100110100
1010111011
1111110100101011
1111101100011110
1111110111010000
1111101111010101
1111111000101110
1111110111111110
111000
1111110111001010
10000000010
10111110010
100101011110
11100010100
1011101100
110010101
1111111110000111
10001111
11011
100111
1111111110111101
1111111111100100
11101100
1110010011
10000000111
11000010000
1111111110111110
1111111010110010
1111111010001011
1111111111110000
1111101100110011
1111111000010110
100010100
100000111
1111111111100111
1001101101
11111010111
111010001
11011000011
100110001111
11101110000
11000010101
1011010101
1111111110011100
1111110101111011
1111111111101000
1100111
1111111110111110
1111111111100111
10001
10
1111111111000011
11111001
1110001001
100010101
1111111011110011
1111110100000101
1111110111111100
1111111101001111
1111110100101101
111000
10111001
1111111101100100
11010010011
11100110101
10011110100
101111101010
11010101110
10100010011
10010101001
1010001101
101001110
1111111111110010
1111111111111001
101
1111111111101010
1111111111011110
1111111111010010
10110
11001
1111111100000001
1111111100011001
101001001
101101001
111101111
1111111101010101
1111110111101110
1111101110001101
1111100001010010
1111111111011010
1000000
1001101111
10001111101
11011111000
11111110111
10001010001
101010001
1000011001
110011000
110101100
10010101
1111111111100010
1111111111011010
1111111111100110
1111111111001111
10100
1111111111011111
10010000
101111
1111111000110101
1111111111001011
1111101100101101
1111110101111001
1111101101010101
1111100110000000
10100
101110011
1
1010000011
10011101100
10011000111
10001001010
10010100011
10100101000
111000111
100101100
1111111111010010
1111111110100110
11010100
11011110
1010110
111100
1111111111111111
1111111111001111
101
1111111110110111
100000
1111111010000101
1111110011001111
1111110000000011
1111101101100010
1111101110011101
1111110101010100
101011011
110100
1111101100001001
1111101111010110
100
1111110011001110
1111110111001101
1100001111
1100010
1111111100110100
1111111110101111
11011
1111111111000011
1111111111111011
1101100
110111
110
11
1100
10011
1111111111111001
1111111111100011
1111110110100111
1111110101100010
1111111011010111
1111110101010111
1111110011110101
1111110010011110
1111110001110011
1111110110000011
1111110001110011
1111101000100010
1111110001010111
1111111000000000
1111110010010110
1111110001100011
1111111001001100
1111111100011010
1111111110110100
1111111111100110
1111111111000100
110
100010
1111111111010011
100010
110110
1111111111101001
11101
10010
1111111111110001
1111111111111010
1111111111100100
1111111100011010
1111111101000011
1111111111011011
1111111111110101
1111111100111111
1111111010111110
1111111110111100
1111111001001110
1111111011110001
1111111110100011
1111111110111100
1111111100001011
1111111111100101
1111111111111110
1111111110101110
11011
11
1111111111100100
1111111111110000
1111111111001000
10000
