1110101001011000
1111010110010110
1001001010101
101010100000
1111100101010011
1111001100110011
111011100010
1111110001011110
1110101110010111
1111101111001000
1111111110011001
1111001010100111
11010100
1000100111001
101101011110
110100000111
11010100000
1101011110001011
1110100110001100
1001010001100
1000101110
11100010111
1101101001100110
110111000101
10111000000
1111101001010110
111101111
1111110100111000
110000111110
101000101100
