1111011110010100
1111010111011001
100011011100
1000111010010
1111001001111111
10010011111
1111110001110000
111111011001
1111110101110100
1111010001000010
1111001101001001
1111001110001101
10010101110
1111110101001000
1111110001111011
1110001111111
1111110011101100
100111000111
1110100110011111
1111100111000010
1110001101000001
1111100100111000
1111111011110111
101100111101
111011010110
101101001
1110111111011100
1111111100010000
1111010101011111
1111100000010001
