101000010
1111110100101111
11110100111
10100100100
1111110011111000
100101101
100111101
1111001110
111111101
111001010
1111110110010111
100101110
1111110100011011
110001000
1111101111110110
10101100111
1000101
10110011011
1101011111
1111111011000111
1111011111110011
1111110011010001
1110000010
1011001000
1101011000
1111101100000001
1111101110011010
10100010101
1111110100010101
1111101000111101
