1111010010101011
1110101110001100
100011000001
1001010101000
1111100001111110
1111010101010110
101001101010
1111001100001100
110111000010
1001000110
110010001000
11111001010
1111000110101001
1111010011000110
110101111111
100011110001
1111001010010000
1110111111010111
1111110100010010
11110101001
11011100011
11000000
1110110100111000
110101000011
1011011111
1111000100111110
10001010110
1111010011
101001100011
1000001001110
