110000110000
1001000001011
1111001010111101
1110110101011110
1111110010000100
100100110000
1111110111011101
10001001001
1001000010011
11010010111
100001011100
100100101010
101000111010
1111000100001100
1110110000110111
1111101111100000
101010100101
1011101110011
1010111100
1110111010100110
10111100
1111011010001110
1011001001001
101001110
101101110011
1011110110000
11011101010
1111110101
1111011000011001
1111000010101001
