1111110001110110
1110110010110110
1111101110111011
100111010101
1001011001111
1111111000011011
11001001
1011011000
1110100000101110
1111001000101110
111010010000
1111101101001110
1111110011100111
1011110100
1000111000000
1111011111100000
1111011111110110
1110010011010110
111111
1100000111110
100001101111
101101011011
1110100101100010
1111101110110111
1111001001100100
1111011011000000
1110111001101011
101100011001
1111010111010010
100010100011
