100011001111
1111001010001
1111111010000110
1110101101110
1110111011100110
1111010111001000
1111101111110100
1110111100110000
1111111110111001
10110001000010
1110000110111001
1010011110001
11001110010
1001010001010
101100010010
1110101000110000
1111100111000110
101101011001
1111100001000010
1010010000101
1111011110111110
111001000
1100110101000000
1100010101011
10000001101100
1101111110010000
1010110000000
1110110111010101
1111001000000000
10001010100
