10010100000
10001110101111
101100010
100110101000
1110111101101010
1111011000111101
1110001011111101
1001110000101
1111111100111111
1111110011100000
1101111011110011
1100001011000
1111011011000100
1111000100100111
1010000101100
10110100111
1111001111100110
101010111001
1000001101000
1111001110110001
1100101001101000
1111111101011100
1110001011100111
1111111111010001
1010001100
1111110011010001
1111101110100000
1000010110111
1011000010101
1111000100111110
