110
1111111111111011
11010
1110
100000
10011
1111111111100011
1111111111110010
11111
1111111111111110
1111111111111100
1111111111100100
1111111111110100
1011
1111111111011111
1111111111110000
0
1101
100000
100001
1110
111
10011
1100
1111111111101000
10011
111
1111111111001011
1111111111001100
100111
1111111111111110
100010
101010
100110
1111111101011100
1111111100001011
1111111101001011
1111111110011111
1111111110001110
1111111101100110
1111111100011110
1111111111000001
1111111111000010
1111111100100111
1111111110111000
1111111111000010
1111111111110100
1
1001
1111111111110010
1111111111011110
11110
1111111111010100
1111111111101100
1111111111101110
1111111111111011
10011
1100
101000
11110
1111111111100111
1110
1111111110001011
1111111010100110
1111111010010100
1111111111100111
1111111011000110
1111110111010010
1111110010110100
1111110011000001
1111101111000110
1111110000010111
1111110011000011
1111111100110100
1111111101110000
1111111111100111
1001010
10100
1111111111110000
1100
100010
11110
1111111111111001
1111111111111101
1111111111001000
0
1111111111101101
101
1111111111100101
1111111110001111
1111111000001011
1111111000011011
1111111000000000
1111110111100111
1111111100101011
1111110111011000
1111101011011000
1111011101001010
1111011010111100
1111100100110001
1111110011011111
10010001
110000001
1001001101
111101001
1001111001
100101010
10001000
1111111111001001
11111
11011
1111111111100010
10001
10011
1111111111100011
1111111111100110
1111111101101001
1111111010110000
1111110111000111
1111110101110110
11000
1100110011
101010001
1111111010111110
1111111011101010
1001100101
1011011100
1111110011100010
1000111000
100110
11010000
1001100011
1111111111001101
101101111
1011101110
1101101100
101000101
10111101
1111111111001110
1111111111100001
1111111111101011
1111111111100101
1111111111011111
1111111111100111
1111110011100100
1111110101110010
1111110111111000
1111111111010111
100101100
10110010000
100010100100
10101011000
101001000
1111110001010000
1111111001111110
1111101100000100
1111100000111111
1111110110011110
10101111001
1111101011
1000000100
101011001
1111111111
11011100001
1110001110
11000101
1111111110101100
1111111111011000
1111111111111000
1111111111001101
1000111
110
1111110011101110
1111111000001010
1111110111011111
1111111010110100
11100001
1111111111010100
1111111110100011
1111100111001000
1111111001101010
1111110111001001
1100000
1111010011100101
1110101101001010
1111100101111011
1001101110
1000100001
11110110
1111111110010110
1011100111
100110000110
1001011100
1111111101100001
1111111110101010
1111111111011110
111010
10
1110100
1000101
1111110011101110
1111110110111000
11000111
10011111010
1111111110100001
100111010
11100100
1111111100011111
100110001
1010110
1111110011111011
1111000010011111
1111000001110101
1111101001100011
11001011100
10001101010
11110100
1101000011
1101100010
11110000001
101001000
1111110111000001
1111111010100010
111010
11011
1010001
100101011
1000010111
1111111011101010
1111111001111011
1110101
10001010101
1111111110010000
1100001101
10110100100
1000000110
1010101110
1111110001001001
1111101110011100
1111000100011011
1111001100010111
1011000110
10011011010
1111111000110011
101011001
100100111
1110010011
11000101100
11111110
1111111100001110
1111111011011000
1111111111100110
1111111111100010
101110
1011000
1110101110
1100
1110011101
1010111111
1111101000111110
1111110111110011
1100001000
110110001
100101101111
10110110001
1111111110011111
1111101111101110
1110101100000001
1111100111110001
1001011001
1100110001
1010111100
1100101000
1100111100
10110100
111000011
1111110101010010
1111101111001011
1111111101001100
10111
1111111111000011
1101100
1111111111100001
1010101010
1111111101001101
1010100011
1111101011110011
1111111100010100
10101110111
1001001001
11
101010011100
11111001011
1001111010
1111001101110011
1110101111010011
1111101011110000
11100000010
10010000110
111110101
111000011
1110011
1000
10000001
1111110111000011
1111110000000011
1111111100100101
1110
1111111111111001
100100
1101110
1010001101
1111110000111100
1111111101000011
1111110101010010
1111111001101101
1111110000001011
1111110110011101
1110011110
1011101110
11001110001
11111000
1111011010000010
1110111111010011
1111111010001001
11011011101
10111011110
1001111001
1111110110000000
101001000
11000011
1111111000101011
1111110000111010
1111111001011110
1111111111001011
1111111111011111
11000
10110
10111100
1001011
1111101100110111
1111110010111001
1111111101001100
1111111101010001
1111111001100110
1111111001010110
101101000
11110010001
1000111100000
100010101001
1111001100100001
1111001101101011
1111111101001000
10110011100
11010101010
111000000
1111111011011111
1111110111000111
110111000
1111101010001111
1111111001101111
1111111111001101
1111111111010111
1111111111111101
1111111111010111
110110
100010111
1111111110101101
1111110101111000
1111110001000111
1001
1111101100111100
11011010001
1111111111101000
1111111110011000
101000000
100001110101
111000110
1111010110011100
1111010000101011
1111101010010000
10110100100
1111111100000000
1111011110010010
110010111
1111101101100111
1111111100110000
1111100100011001
1011001110
1100000
0
0
1110
1111111110011100
1001100
1101101
111101011
10110011111
1111100110000111
1111110110111001
1100011001
1111111101110000
111011100
11000000011
111100
1111011100010011
1111111100100111
111111
1111111011010010
100101001
1111110100100110
1111011001
111101011
1111110001100001
1111111011011010
1101101000
111101101
1111111110100100
1010000
1111111111111000
10111
1111111111001101
11111
101010100
1001110
1111111010101110
1111110111010101
1010110001
1000111000
11010111
10101010001
10101000011
1111100110111100
1111101001111111
1111111010111011
1111111001010010
1111110101111111
1010011010
1111011111
1110101011
110100101
1111111110011001
10010110000
1011010100
1111111001011010
1111111100110110
11000100
10001
1111111111111010
1111111111001001
1111111111011011
1111111110000000
1111111011011101
1111101011101000
1111110101000111
11010111
100100001
1111111100001101
1111111100000000
1111110001100111
1111101101101010
1111110110110000
110110
1001011000
1111110111010111
1010101100
1101011101
1101110101
11011010
100001001000
1010111010
10000
1111111101010111
1111111101101110
10101010
1111111111001001
1111111111111101
11
1010111
1111110110001010
1001111101
1111111011000110
1010110011
1101111
1110001100
1111111111100110
1111110001110111
1111110100110111
1111100111110101
1111101010001011
10100101
110000000
1111110110111010
100101111
11111111011
1111111101101100
1000101010
10010110101
1111111001
111110100
1000111010
110011
1101010
1111111100101010
10101
10111
1111111111101011
1111110110010101
11100010
10000010100
10011101011
10010100011
10010001000
1111111000111001
1111100010101111
1111101010101111
11101010
1111111101000101
110000000
111100010
100010011011
10101000110
10110110010
1111110110110110
1110101
10000000100
1111110100010111
1111110110010001
1101110011
1111111111011010
1011
10111
11110
1111111111101100
1111111111110100
1111111011010110
1111111100110111
1100000001
10111100011
11011000
1101011
1111110110111000
1111011010001011
1111011110111100
1111010111010101
1111101100100110
1010110100
1111111101110000
1111111001110001
1111111110001100
101100110
10110011
1111111000101100
1111111110111001
1111101000000000
1111110111000110
1001000001
1111111111000000
1100010
1111111111111101
1101
1111111111111000
1111111111011100
1111111101011111
1101111
1000111001
1111110011
10010101101
1111111100110101
1111011111110101
1111100001111100
1111011101011010
1111110011110101
1111111110001000
1111101100100001
1111101110011101
11101101
1111110100011111
10101001
1000100001
1111111100110101
101101101
1111111110110010
1111111101010010
11110000
1111110111001000
1111111110100001
1111111111111110
1010
1111111111111100
1111111111101100
1111111011101011
1111111110100100
101100011
1000001101
1111111000010111
1111111000001100
1111110101001100
101001100
1111111011011110
1111111101100100
110101101
1111110001010010
110101000
1001110110
1111111001101010
1111111100101100
10010001111
1110010111
10111000011
10011100100
1010100010
101101
1111111101011011
1111111111001100
1111111111111110
11111
100111
1111111111100111
1111111010101110
1111111101000001
1111110111010001
1111111010000001
1111111010111111
10011
1110000001
1011011110
1100011000
1111111001100110
100011101
1111110000101110
1111111001100010
1111110011000001
1111110000011100
1111110001011011
10001100100
1111111111011001
1000110011
110111011
101101110
100011010
1111111110000100
1110
1111111111110100
1110
11001
1111111110010011
1111111010100101
1111111100110010
1111111011110010
1111110101001011
1111111101011100
1111110101010110
1100111010
1111010111
1100000
1111110010110010
1111101111011100
1111111100011100
1111110011111110
1111101010010001
1111110111110111
101000011
10111111
1111101010100111
1111101011101000
1111110000111100
1111111000110001
110011
1101011
11
1111111111011011
1000
1111111111111100
1111111110100010
1111111110010011
1111111110000111
1010
1111111111100001
1111111101001111
100101110
10011111101
1001111000
11011111
1111111110101011
10101001111
1000010100
1111111111011010
110100110
100011011
11001
1111101100001001
1111100010011111
1111100010011101
1111111010000011
1111110110100000
1111111101000010
1111111111100100
100
100110
1111111111011010
101111
1111111110100101
1111111111001111
110101
1111111100110001
1111111010101000
1111111010100111
1001010
11010100
1111111100010100
1111110111110001
1111110110
1101101100
1110
10000110011
11100011010
10011111010
1110000001
1111110001001000
1111110000011000
1111111000011101
1111111000000111
1111110111001111
1111111100100111
101
10000
1111111111011111
10101
1001
1111111111111000
1111111111011010
1010
1111111100001001
1111111100010000
100
1111110111111101
1111110111100110
1111110011010011
1111111010000011
10011001
1111111111101100
1111111010001101
111001001
1011100
1111111000111001
101000
11010110
1111111011110010
1111111101010011
100110100
1000001
11111
1111111110111100
10010
1111111111101111
1111111111110001
1100
11110
1111111111100001
111011
11000
110110
1111111110011100
1111111101110011
111001
10101011
1111111110101010
1111111111111100
11000001
1010001
1111111101110111
100110100
1111111
1111111110001011
11111
100101100
100100001
100110010
111011
11011
1111111111100100
1111111111101111
1111111111111101
