100101
1111111111110111
1111111111101100
100110
111100
0
1111111111110011
10000
1111111111110011
1001
10111
10010
1111111111100010
1111111111101011
1111111111111110
1111
1111111111010111
1111111111011111
1111111110111111
110001
10
1111111111101001
1111111111110010
11100
1111111111110000
1001
1111111111111100
1111111111000100
1111111111111001
11111
111011
101101
1000
1111111111111101
1111111111101011
1111111110111100
1111111111100101
1111111111101100
1111111111101100
1101
1001101
101000
1111111111010010
11011
1
110110
11
1100100
111
1111111111010100
1111111111110001
0
10000
1111111111010101
1111111111101011
10110
1111111111111110
10101
1111111111011001
1111111111111010
1111111111111010
1001010
11110
10000
1010011
100011100
101001100
101011110
100000101
1011001
1111111110001110
1111111101011010
11010000
1101100
11011111
10001000
11100010
11001101
111111
1001001
1000000
10000
1111111111100001
1111111110110101
101110
1111111111111110
1111111111111000
11111
10
1111111111010001
1111111111110010
10000011
111111110
1001010111
110001110
101001000
1111111111000101
100101101
1010111101
1111111111100100
1010001001
100110110
1101011011
10101110001
1010000001
1010101001
1100011001
100101111
11100111
1111111111111001
1101111
1111111111011011
1000
100110
100101
1111111111111010
111000
10111011
101011110
1000110100
1101010000
1110111001
10100011000
101110010
11001011
1111110000001010
1111101101100100
1100101
101011000
101000110
10010110
10000110101
1111111000101100
110100110
1110010011
1111111111111100
1111111101101110
11000
10011
111011
1111111111110110
1111111111010000
10010
1111111111010000
11000010
11110100
1011011110
10000011110
100011011010
11100100001
100010001000
110100101
101011101
1111111000110001
11110110
1111110110001110
101010111
10001100110
10000100001
1010000011
1111111101111011
1111111101000010
1111110110001111
1111110000110001
1111111101101101
1011010
101101
100000
1010000
110111
10001
1111111101110010
11010011
1001000011
1100000000
11000011000
10101001011
10011011001
11001111100
11011010000
100101010100
1111111110
10000011011
11111001011
11010100000
1000001
1111111001011101
1111101111
1111110111110111
1111110010101111
1111110111100000
1111100011010110
1111101010010010
1111111010101000
1111111101001010
1111111111010011
100000
111001
10100000
1000001
1001110
11011101
1101101101
110111111
10011011010
11000011100
101011001011
101001011111
10011101
1101111111
1111110000110000
11001001100
10110111011
10010110000
1111100000
101010001
110101
1111110011100100
1111101001010101
1111010110010100
1111100101100101
1111110001100100
1111111010100001
11001
11011
111010
11101110
1000000
11001100
111010100
1111111100
11000101000
11110010110
100000000000
100110111011
11110010111
1111110
1111110001101111
1111111101101001
10101011000
11000101101
1111110011110110
10010001010
1100100100
1110111010
101100100
1111110110000110
1111110110111011
1111101101011001
1111110100101001
1111111110001101
1111111111000110
1111111111010000
1001010
1100000
10100011
11101111
1000100001
10010001000
1101000110
10011111011
10101000010
100111011
1010101100
11111111001
1000110000
110010
1111111111101001
1111011001011010
1111101000011010
101100000
11010100
100001111101
10110111110
1111111110100001
10001101001
1111111000011010
1111110010000010
1111111000011110
1101111
1001010
100000
10110011
10001010
1000100000
10001011110
10100011001
1100011010
10010101101
10000000110
1111111011110001
1011011010
10100010101
1111101111001001
1111011101101010
1111011000101110
1111011101011011
1111101110101001
1011011011
1111111000011100
100000010000
111111011
10001101000
111111001
1111101100000000
1111100001100010
1111111000111101
11000
101011
1000
11001
10001101
110010100
1111110000
1111100010
1100000
10010010010
11110011101
10010110001
1001111010
10110001
1111101001000100
1111101011001110
1111011100101000
1111110011101101
1111101011010001
1111100010111111
110101110
1000100111
10000110111
1110011000
1111111111011100
1111101111100000
1111101110010000
1111111100111111
1111111111010111
1011
1111111111001011
1100011
10111111
1000011
10011000110
1001011110
101110010
1001000001
1000010110
101001110
1011000111
1111111111010001
1001001101
1111100110011010
1111110001000000
1111101111111111
1111111101001011
1111110011100010
1001100101
100001100111
100010000010
100010000101
10011101111
1110000001
1111111110110101
1111111111000110
1111111110111010
1111111111100111
1111111111101011
11011011
10110011
10111111
10010100001
1111011101
10101100
1111101101011110
111100110
1000111001
1110101101
1111111110101100
1111101101
1111111010010100
100111111
100010
1111110001101101
111111100
100001001101
100101010000
11111110111
11101100111
10001010110
1000110101
0
101011
10000
1111111111101100
1000
10
1101100
100011
1011111101
10001011110
1111111100000001
1111111110011001
1111111000110011
10001000001
11000011000
100011111111
11100100100
10011001000
11010111000
1111111101011110
10000101111
10110001101
11001010111
11001101110
1010010111
10001011000
10001010011
1111110111001110
1111111101110100
1010
1111111111100101
1111111111100100
101100
1111111110111111
1111111111111000
1111110100000000
10011100
1111111111101110
1111110111000000
1111110100100011
1111111110110001
11000101101
1111101100
1111110010110010
1111111111101110
10101110001
1100101010
1111101010010011
11010010010
10010010100
100001100011
111001101
1111111110110001
1111010110
1010000111
1111111111100110
1010011
1101110
110100
1111111111111101
1111111111101011
1111111111101001
1111111011001110
1111111110100110
1111111101011001
1111111001111111
1111111111110010
11011111
11000011111
101001100110
10111010011
100000011000
1000100001
1101011110
110100001
11011100011
11001000111
100100000
1101000011
1111110111101000
1111111001101001
1101110100
1101110011
10011100
11100000
1000101
1111111111011111
1111111111011001
1111111111100101
10000
1111110111000001
1111111100010111
1111110110101011
1111101111110100
1111111111100111
10000010111
1111110000
1100011011
1000010001
1111110100101011
1111111010100100
1111101011101111
10110010000
10100110011
10010001100
1011100011
1001001010
1111111111011110
111011100
1010000101
100101001
1111111101011000
1111110
100010
11000010
1111111111111001
10110
1001101
1111110001011101
1111111100111001
1111101101111100
1111110101011100
1111111100110110
1111110000110110
1111101100101110
1111110111111111
1111100100110101
1111100100001100
1111100001100011
1111100110010101
1111111111001100
10110000010
110001011
1111111101111111
10110011
1111111101110001
11000011111
1001001100
1111111111000000
1111111010100010
1111111100100001
1001
1111111111000110
1111111111101000
1001001
1111111101110000
1111111000111010
110000000
1111101100111100
1111101000011001
1111101100101110
1111011100101111
1111011110011000
1111100010100000
1111010100110110
1111110100111011
1111011010011101
1111011010101110
1111011100111000
1111101110110100
110011000
11101010
100001
1000110101
10100110001
101100011
1111111101101110
1111110111101100
1111111011001000
1111111110001001
10011
111110
0
110
10101111
1111111011010000
1111110100101111
1111100011010110
1111100111101001
1111011111010010
1111110110000001
1111111101000000
1111101111010101
1111000
1111111110110000
1111100101000100
1111110111001100
1111111111011000
1111111111111111
1111101110110100
1111111001101010
10010001010
11100100011
1101101011
110110010
1111111100101000
1111111111110100
1111111111111000
1111111111100110
1111111111111000
100001
11000011
110011110
1001010111
1001000110
1111111001000110
1111111001101010
1111101010010111
10101001
111100001
111011110
10000110010
11011100
1111111101101100
1111110000011100
1111111011011000
10110111
1111111100101101
100111011
10111001110
11011110010
1110101011
1100101
1111111000100001
1111111111110000
101100
10
1111111111110101
1100
10000
10001101
1000000011
1001100101
1111111110001101
1010001000
1011011110
1111110
10101001011
111010011
10000000110
101100101
110111110
1111110101110011
1111100011101110
1111100110001001
1101101
1111000110
11110111000
10100010100
10011001
1001
11001
10011
1111111111010110
100
101
11100
100010
10100110
1101000
100011101
10000111001
10111100001
1001001010
110111011
110010110
110100011
1111101101100010
1111111001110101
101101110
1111101111000000
1111100110111111
1111100100000101
1111111101101111
1010010111
1111101000
1011101101
10110100
1001110
10110
1111111111111101
1111111111100111
1111
1111111111101010
1111111111111110
1111111111101001
1111010
100011011
1001110110
10110010001
11001111011
10001110001
1111111010011001
1010000101
10101101110
11100001010
1100011011
110101111
1001110101
110000011
1111100111010101
1111110100001010
100100
1011111101
1000110001
111111
1111111111001100
1111111111010011
1111111111010110
11
1111111111100111
1111111111101001
1001
0
1
10111101
1001000111
1100110010
1010010101
1111111111011100
11001011
100100000010
10110001111
111001110
1111111100010110
10000100000
11001110100
111010110
1011110
1111111011101000
1111111001100011
1111111111111001
11110
1000
1000101
1111111111110001
1111111111111111
1111
101
1111111111111001
1111111110110001
1111111111100101
1111111111111100
100011
11001110
100111011
10101101
11001110
10011001
101110101
1001001001
111100110
10010010101
1111001111
1111111100101110
1111111011100001
10000100
1111111111111101
1111111111111111
1111111110110111
0
1111111111111011
11100
101101
10111
1111111111110111
10001
1111111111011000
110
1111111111011011
1110
1111111111111110
1110
1111111111010000
100011
111011
1111111111011100
1011110
1111111111111010
1111111111011011
1111111111100100
1111111110011000
1111111100110100
1111111101000111
1110
1111111110011110
110000
1111111111110101
1111111111111011
1111111111101001
1001010
1101001
1000
1111111111101010
1111111111100110
