1111111111111000
1111111111100010
0
1111111111101110
100101
1110
1000
10001
1111111111001010
110100
110100
11000
101111
1111111111000000
1111
1111111111110001
1001
10111
1111111110100100
1111111111011000
1010
100
10000
101001
1111111111111010
1111111111011011
1101
101011
11110
1111111111010010
1101
1111111111110101
101
11
1000111
100000
111001
101000
1001
11011
1011
1010110
1111111111001001
1111111111100011
100111
101110
11
1111111111111011
11110
1111111111010000
1111111111011101
11111
1111111111111111
111000
11010
11011
100110
1111111110011101
1111111111111101
1111111111111010
1111111111001111
1111111111101110
1111111111110011
101110
11100
1111111110010110
1111111111000010
1111111100111010
1111111010100001
1111111100001101
1111111001110010
1111110110100001
1111111001101101
1101001
11111000
1100111
10110
1111111110111101
1111111111100110
1011
1000
110001
11000
1111111111110010
101
11111
1111111110111000
1111111111111101
1011
1111111111111011
10111
10000100
11001010
1111111101100011
11111110
1111111111000100
111010101
1111111010111111
1111110011000111
1111101100101001
1111101100001111
1111110001001000
1111101000001111
1111110010010111
1111110111010110
1111110000110010
1111110010011001
1111111011110101
1001000
1111111111101000
11110
1111111111001001
1111111111000000
100
11110
101
11010000
101010011
11111011
1101111111
1100001000
110101001
1100011110
10001110110
1111111010010100
1111110101111110
1111110100101001
1101101011
1011110
1111110011101001
1100011
1111110010101011
1111110000011010
1111111000000111
1111111111000110
1111111011000111
100110000
1110101
101010
1111111111100101
1111111111110001
1111111111001110
1111111111111010
10000
101000011
1100011111
101011001
1011000000
1010100010
1101010
11011001
1111100111100100
1111111101101011
11101101111
1010100001
1111111111011011
1110010110
110111010
1111101100
1111111000111010
1111011100
110111
10110111
1001110101
1101010
101111
111101
1111111111001000
1111
11000
1001001
100000100
1000001001
1110111001
1000110001
10111010
1001111000
1111111010100011
1100001110
1000000000
11110010
10010010001
1101101011
10101101000
10001110
101010000
1110111000
100101
1010010110
101111100
10010011
1001010001
10000011001
1001101011
10010011
1011
111
110
111
101100101
1111110010
1101000001
1010111010
10101001001
10110101
1111111111110011
101001100
1010000010
10101100011
1111111010010110
1111111110101110
1111111010111001
1111110100101000
1111111010101010
1111110110000011
1111110111000010
110001000
1111110100010100
1111111110000100
10100000
1110001001
1101001101
100010100
10000
1111111111001101
1111111111100100
1111111111111111
11000101
11000000011
10000111
1111111001001110
1111110011110000
1111111001110110
111110001
1111111111111100
1111111111101100
10010110000
1001001101
11110000010
10000001000
101110010
1111111001000110
1111111100110111
1111110100010001
1111101111010010
1111111010010001
11101001
1111111000010101
1011100011
1010010010
11100110
1001
1111111110100111
1111111111101000
1111111111001101
10010000
10100000000
1111111010011011
1111111110000010
1100100111
111000100
1011001111
1111110011110000
1111111111110001
111111111
1100011111
11001101101
11000010001
11001000111
11010110000
100000100001
1000110111
1000111000
1101010101
1010100111
1111111010000001
1101110000
10011101011
1001111
1111111111111110
1110
1111111111101011
1111111111110000
11100100
1111111101011110
1111111100010100
1010101001
1111110111
11100001
1111101110111101
1111110110100110
1111111110011100
1111110110111110
1111110001100001
1111110100110100
111110110
111010110
10110100001
11110000011
1110011001
1111111110110000
1100000
1111111111101001
1111110111111101
10101010
1010000101
11100110
10011
1000011
1111111111010000
1000001
1111111100100011
1111111000001010
101010111
10010011
1111111001100010
1111110000101101
1111100000010111
1111101111111100
1111110000101001
1111101001001111
1111111001100100
1111010011000101
1111101000100000
1111100100100000
1110110001
1011111100
1111111111011000
1111101101101000
1111011111100010
1111110001100010
1111110111100001
1111110010110001
1011001
1110011
10000
1111111111110010
11111
1111
1111110101011110
1111110110000000
1001001001
101000011
1111110110011000
11000000
1111110000011000
10010110
1111110001100000
1111110010011111
1111111000010001
1111100011110111
1111011010110000
1111100011100000
1111101101011000
110101001
10001011
1010101110
1111110010000101
1111111011111010
1111111010001001
1111101110010100
1111111101110001
11010
1111111111111001
1111111111110111
1111111111100101
1111111111100100
1111110110110100
1111111011010011
1001100111
1101100
1111111100111111
1111110111111001
1111110101110100
1111100010
1111111101000000
1111111111000101
1111111000011101
1111110110111101
1111100111011100
1111110101100011
1111101110110100
1111110001100110
10010110000
10100111100
1111111110100010
1111111011011001
1111111101110000
1111111010111111
1111111010101000
100000
1111111111101001
1111111111010010
1111111111010100
110000
1111111101000000
10100
1111111110010001
1111111111111100
1111110001001100
1111111101100101
1111111100100000
1010011111
1111110000010110
1111111110100010
1111110100011010
1111110001101010
1111110110001110
1111101001110101
1111011111010001
1111110110011100
10010100001
10001100010
10011011011
100010111
1100000100
1111101011
1111111100100110
1111111111001011
1111111111101000
10
1111
1111111111001100
1111111101101011
10010000000
1100001000
1111110001000011
1111100011010011
1111110101000110
1111111011110100
1111111101010011
1111110010110000
1111101011001111
1111100100111001
1111101111101001
1111110111100001
1111100101111101
1111011010110111
1111111000011100
10000001000
11001100101
10110100101
111011111
1110011100
11010010010
1111111111111011
1111111111111101
1111111111110000
1
1111111111111110
1111111111111110
110111101
10010010101
111110010
1111111100100010
1111110100111111
1111101010011011
1111110010100101
1111111101101001
1111110001000111
1111110100001101
1111111110101000
1111100001010011
1111100001101111
1111010010011010
1111110010100001
111101001
11111010011
10001101100
10111000111
10111101000
1100111001
10101110101
1111111100101000
101000
110011
1111111111111111
1011
111101
1100101001
1110110101
1001100000
1000111101
1011010110
1111011110111001
1111011100000111
1111100111110011
1111101111100100
1111110010010000
1111011000000111
1111011100010100
1111110011011100
1111101010000011
1101010
100111110010
11111000001
1111111011100001
10000010101
10110101
1101011111
1000010
1111111100000100
100101
1000111
11100
10111
1000100
1000011101
11011
10000001100
1001100010
1111111010001100
1111100100111000
1111011000000110
1111100001111001
1111010001000101
1111011011100111
1111001001001100
1111011100101111
1111111001101001
1101100101
11101000100
11100001010
10011111001
101111
1100110010
10000110100
100110001
1111111100100111
11111
1111111110101110
1110
1111111111101001
1
1000
11100111
100001000
1100000111
110110010
1111101010111100
1111011111001001
1111010110110111
1111010100101000
1111100000000001
1111101110011000
1111100111001000
10000011000
10110110101
11101101100
10000110100
1000001111
111110011
111111110
1110011110
1111011111
1111110110111011
1111111101110111
1001101
1111111111100101
11011
1111111111010001
1111111111010010
101110
111000100
111001001
111111110
1100010000
1111110001111100
1111101110000111
1111101001100001
1111101011101011
1111111000100110
1111101100111110
10000100001
100110111010
10000011010
1111110001
10101010101
1001111001
10011111100
1000100000
100110111
10110110
1111111100010100
1111111101100110
110111
1111111111010010
1
1111111111111100
1111111111100010
1
1001011110
10000000010
1000000
11000010111
1110101110
1101110110
1111110111111000
1000001111
10111110100
1111000100
1010111000
11010010000
11001000100
10010000100
1111111100000010
111111111
1001011100
10110100001
1000100
1111111001111010
100111100
101100011
1110000
1011
11001
1111111111111000
1111111111100111
1
100000110
1000011111
1101100101
10010111000
1111011110
10100111010
1110011111
1110000000
10001010010
11011001101
10011010111
10011001100
111001001
1001011110
100010000
1111101001
1000010110
1001111010
1111111000111110
1111110010110111
100000001
11101111
1111111111100000
1111111111101000
1111111111101010
11101
1111111111000100
10100
10001010
1101011000
10000100010
11000101110
1110110011
1110010101
10011101000
11100000000
101000010011
1010011001
1010001101
1010111
1010001110
1111111011111100
101110110
1111111111110000
1111111010110010
1111110101100111
1111110001101111
1111111001001101
101000011
100001110
0
101010
100110
1111111111011010
1111111111100100
11001
11100101
1001110110
1100000111
10011001010
10110010110
111011
100001101
1010111111
1111111110110010
1111110100110110
1010000000
1101010000
1111110111100001
1111111100010111
1100010110
100111010
1111101101000111
1111110000110110
1111111010010000
110001100
111100001
11110000
1111111111100111
1111111111010000
100110
11111
1111111111110011
111001
10010
1111111111101011
101000010
1011100011
1010011011
1100000111
10001100011
1111011110
1110010100
10010110111
101001110100
1100100011
11001
10000001101
10000001101
1011101111
1111101011
1100000100
1100100101
111110110
110110101
11011010
1111111111010101
1111111111000010
1111111111111111
10111
111011
1111111111101011
10100
1111111111101001
1111111111101011
1111111111111010
1111111011111011
1111111100011100
1111111100001100
1111111011111100
1000101
11011101
1110111111
10000101001
10001000100
11001110111
1011111001
100010010
1000001101
1000000110
110011111
1011000
1111111111100001
1111111111110000
111010
1111111111001111
1001
1111111111001111
1111111111110011
1111111111101011
11
1111111111110001
1001
1111111111101110
1111111111110010
0
100110
1111111111010111
1111111110110111
1111111111110010
1111111111010111
1010
1100011
1111111111111000
1001
1111111111111001
1111111111100111
1111111111000110
1101
1111111111001001
1111111111110100
100
100
100001
1111111111011001
