1111111111010001
111
1000
1010000
1111
1111111111110001
10
1010
1111111111101011
1000
11111
10001
101001
11011
1111111111101101
110000
1111111111000100
110
100000
1111111111110111
101001
1111111111110111
1111111111101000
1001110
1111111111111001
1111111111110100
101
100101
110
100000
110110
1000110
1010100
1111111110011100
110
110100
1000110
11
1111111111001101
1111111111111011
1111111111110010
10010
1111111111111101
1111111111110111
10010
10110
101000
100100
1111111111011100
1111111111100110
1111111111101010
1010
100
1111111111101101
11100
1111111111010010
1110
11
10100
1111111111110001
1111111111101001
1111111110110000
101111
1011111
1010011
10100
1111111110110100
1111111111000011
10010110
11000001
101111100
1000001000
100110011
1111111111111010
1111111110100110
11101010
10100000
10100101
10100010
1000101
11110
11010
1100
1111111111010100
100010
0
1111111111111101
1111111111100100
1111111111011100
1111111111001010
10101100
10111110
110011
101000110
1111111111100001
1111111111111010
10101011
1001000001
10100110100
11100001110
10110010001
10000011101
1100101000
1110110010
10011000011
1000000000
101110001
10000001
10100101
111100
11011000
1111111111111011
11
101
1111111111100111
1111111111111100
1111111111101111
100
100000011
1111111110111111
1111111000000111
1111111101000011
1111110111111111
1111110001010001
1111110100110111
110010011
1111101101111100
1111101000110001
1111110010001001
1111110101101100
1111111001010111
110100000
1000111111
100110110
1111111100100101
1111111111001101
10101101
1111111110100101
1111111110000101
1111111111101000
11111
1111111111100001
10110
1111111110100100
1111111111100010
1111111111101011
1111111111111100
1111111011000011
1111111011001011
1111111001011001
1111110111001110
1111100100111111
1111101011100001
1111111010110100
1111100111100111
1111111000000000
1111110100101101
1111011011101010
1111111111100001
1111100001000011
1111101001101110
1111101101100011
1111110000111010
10011001
111001
1111111000100100
1111111100001101
1111111111100010
101
1111111111010110
101000
1111111111010110
1111111101001001
1111111100110111
1111111111011001
1111111101000101
1001001001
11101111
1111111001110011
1111101100111011
1111110000001100
1011100100
1111111001011000
1001001
1111111000110011
1111110001010101
1101110001
1111101001111101
1111100100001000
1111111111001010
1000011100
1111101111101110
1111110001100100
1111101101101000
1111111110011101
1111111111000011
1010
11011
0
1111111101111100
1111111100011111
1111110110101110
1110000
1111111110000110
110100000
110111100
1111111101000101
101111
11001010
1100101100
1100001001
1111111100111111
11101001
10001110101
111110100
1111111100111101
1111111100100011
1111111100001001
11001000
1111110111010010
1111110111101110
1111110101001101
1111111011001111
1111111110111011
1111111111101100
11111
1111111111110010
1111111100011101
1111110110010010
1111111001100100
1111111101110111
1111111111111100
10101010
1111111100010010
101
10100101
1111110000110100
1111100111111000
10101111
10011110010
1111110111101100
100000
1111101001010111
1111100111101111
1111101001111011
1111100011101001
1111111001111110
1111101010111011
1111110011001010
1111111001100111
1111111000101101
1111111111000100
10001
1000110
1111111111111000
1111111100110001
1111110110110100
1111111001110101
1111110110111101
1111110101010000
1111110011101100
1111110000110100
11100111
1111110111010101
110010101
1111111111101110
10111111
1100010111
1001100111
1111110110010001
1111101111111100
1111110100001011
1111101110111010
1111100100001100
1111110100100100
1111110101101101
1111111010001110
1111110011010000
1111111010010100
11010001
1111111111101001
110
1100000
1111111111000010
1111111010110101
1111111111001011
1111111110000101
100001000
1111111101101010
1111110100111110
1111100111110111
1111110111001010
1111111110000000
111000000
11000101100
11000111101
1111111111111001
1111111100010100
1111101110000011
1111111001001000
1111101000000011
1111101001110100
1111111000111110
1111111011000101
1111111100111011
1111110111110110
1111111011100000
1111111111010011
101111
100100
1111111110001011
1111111010000100
1111110011011101
1111110000011100
1111111000101000
1010110000
100001011
101110110
1111111111101011
110001101
1110010
1000100110
10100101000
10111111001
10111000000
100110100
1001000001
100010011
1111100100110001
1111101100101101
1111101100100100
1111101011001101
1111100110011010
1111110000000000
1111110000010001
1111111110010100
1
111
1111111110111000
1111111000111111
1111110010100111
1111100100110011
1111111001010100
1111000010
1111111111111111
1111101100011000
1111110110001001
1011110011
10011001001
100000000010
101011010
1001001111
10000101111
1111111110110101
11010010000
1010101
1111110111101101
1111101000000011
1111110000011000
1111100111101111
1111100100101000
1111110011110010
1111110111111110
1010
1111111111011000
11101
1111111111001111
1111111101010001
1111110111001110
1111110101100111
1111111100001100
1100110011
1111110011100100
1111110001111011
100010010010
10000101000
11100011010
100010010101
1100111000
1111111110010001
1111000011
11001011001
1100001101
1111011
1111110101011110
1111100110011110
1111101100000010
1111101011100011
1111110111101111
1111111001101111
1111111001010001
1111111111101101
100011
1111111111011101
10010
10000
1111111101111010
1111111110100000
1111110000000110
1010001010
1001011110
11010101001
100110100010
10111001111
100000001000
1110101011
1110001
1100010010
111011100
1101110110
100000100100
1011010010
1111111110101001
1111111100010100
1011001011
10111101
101000011
1111111111010100
1111111110010111
1111111111011111
1111111111100101
1111111111111010
11101
1111111111100111
10011110
1111111111110000
1111101111001000
1111110101001000
1111101111000101
10101101111
11011000001
10010001001
11010011110
1111111111001101
1111101100011000
10011011011
1001111000
100001000000
11011101010
1000101001
11101101
101111010
110000
10111011
11011101
11100111
100001
11000
1111111111110011
100011
1111111111111011
1111111111000011
11101000
1111110101100101
1111100110000001
1111101110000110
1111111000000000
11000110
11001001001
11000011000
101010001
10010101
1111111111111110
1111111001110001
11010110111
100001110000
1100000110
110001100
101001101
1111110000110111
1111110011011010
1111111011100101
1111111100000101
1111111101111100
1111111111010001
1111111110110000
1111111111101000
110
1111111111010100
1111111101001101
101000
1111101101100001
1111011100101000
1111011110101110
1111100100000001
10011101
11101111010
111011010
1111111110111001
1000111010
1011001010
1010110000
1000101010
1000001101
1100101101
1111111010100001
1111111110010100
1111110101000010
1111110110001110
1111111100000010
1111110110010101
1111111000010011
1111111101101001
1111111111100001
10
110100
1111111110110000
1111111010101101
1111111011111111
1111110000111001
1111011011011011
1111010111001010
1111100101110000
1111111100111000
1000111110
111110101
1111111110010011
1111111010001110
1000100111
1010100111
1111111101010100
1111111101110110
1111111110101111
1111111000000111
1111101001011001
1111101110001001
1111101011011110
1111110011011001
1111110100111101
1111110111010111
1111111111110101
11
1111111111011000
110100
1111111110111101
1111111101101110
1111111011111001
1111110011101110
1111100011000011
1111100111110011
1111011011001011
1111011100001110
1111100110101001
1101
10101001110
1000101
1111110100111010
1111111111101101
1111111110000010
1111100011010010
1111011111100011
1111100111000001
1111011111010001
1111100101101010
1111100100101100
1111101011000110
1111110010001001
1111111000101101
1111111110010100
1111111111001000
1110
1000001
1111111111100000
1111111011100110
1111111101110010
1111111000101000
1111110011010001
1111110000111101
1111010101101000
1111100110010000
1111011101100000
1111111010101011
101100111
1111111010101000
1000011111
1111111001000001
110001011
1111101101010010
1111100110101100
1111100011111010
1111011000011111
1111011111000111
1111101001011001
1111101110111001
1111110101111000
1111111001111000
1111111101010100
101
1100
1111111111111011
1111111110011100
1111111010100000
1111110111101010
1111111111001101
1111110011001010
1111110101000000
1111101110001110
1111111101010111
110010
1111101111111110
11011001
1111110001100110
1111110010110101
1111110100101101
1111110100101011
1111100010000111
1000111
1111101000111000
1111011111100110
1111100100110110
1111110000101110
1111110011000100
1111111010001010
1111111101001011
100
1111111111101100
1101
1111111111110111
1111111110011101
1111111101101100
1111110111101011
1111110000101001
1111110111100100
1001111
11111000
1111110011110110
1111010
1111011101010010
1111101000011111
1111101111000101
1111110101100011
1111101001000010
1111110101000000
1111110110100000
101011
1111101110110001
1111101001010110
1111110001101111
1111110101100101
1111111001110011
1111111110110001
1111111110110111
101100
1111111111110010
1111111111100100
1111111111111101
1111111111110000
1111111110100010
1111110110000011
1111110011111000
1111111101010000
1010110101
1110010000
111001101
1000110010
1010101010
1111111101101110
1111110011111110
1111110010010100
1111110001001100
1111101011111100
1111111010101110
1111111010110100
1111110000111101
1111110111011010
111011101
1111111110010001
1111111011110101
1111111111101000
11001
11100
1111111111010101
1111111111101000
110101
1111111111010001
1111111111000110
1111111111100010
101001011
111111101
1101111010
10100101110
1010000011
111110000
1111110100110110
1111101111100000
1111111111011011
1111111010011110
1111110101010000
1111110111001110
10001010001
1111111110000011
1111111010000101
1000100100
101001111
1101111
111101
11101
110010
1111111111100110
1111111111100100
110101
10001
1111111111011011
1111111111110110
101101111
1011101010
110111111
111000111
1001100110
1111111010100101
1111110000000011
1111111010000100
1111111101001010
1111111100
1111111101010101
1111110100100110
1111101110110000
1111110010101111
1111111000001001
1111110010110010
1111111010111001
1111110111011111
1111111100101111
101110
1000111
10001
10111
10111
110101
1111111111011101
1
1111111111000001
1101
100110
10001000
110011010
10011100
1111111110100100
1111111110111101
1111111101000101
1111111110111101
1111010
101110001
10000011
1111111001101111
1111111100010101
111110
1111111111100110
1111111011110101
1111111001010110
1111111110100111
1111111111011000
1111111111111001
100011
1
1111111111100011
1111111111111110
10101
10101
1111111111110101
1000
11110
1111111111100110
1111111110101000
1111111111001000
1111111111010110
1110110
1111111111011000
1111111111100011
10
1111111111101000
10110
100
1111111111000101
11111
101100
1111111111101001
1111111111110010
1111111111010001
1111111111110100
10011
1111111111010011
1011
10011
