1111111111100000
1111111111111011
110
1100
11
0
11100
100001
101100
1111111111101010
1011
1111111111101100
1111111111011000
1011
1101
100
100000
100
111010
1111111111111111
1111111111100111
1111111111100001
1001
1111111111101110
10101
1111111111010111
1111111111101000
1110
111000
1111111111010111
1111111111011001
11001
10001
1111111111100111
0
1111111110001010
1111111110111101
1111111111011101
1001
1111111110100000
1111111101111110
1111111111100010
110100
1111111100011000
1111110110000001
1111111011101111
1111111111111111
1111111111101010
1111111111101101
1111111111101010
11
11
11010
1111111111111001
10000
1111111111010111
111
1111111111110010
100011
110000
1111111111100011
1111111111101101
1111111111100110
1111111111010010
1111111110010001
11000
10010111
111001
1111111111110110
1000000000
101001100
1000100001
10110001
1111111110100010
1111111111011110
100000
111110
101001
0
1011
1111111111011100
1111111111001110
1111111111101011
10111
10000
1111
100100
1111111110110000
10101
1111111111010000
1111111101010010
1111111010110101
1111111011100110
100100011
10101111
10000001
1111111100100100
1111111110110101
100010110
1111111100110101
101011100
110011101
10100001
111001111
11001000
10001101
1011011
1111111111101100
1111111111110111
1111111111100000
100000
1111111111001010
1111111111011001
1111111111010111
1111111111111101
1111111110111110
1111111110001000
1111111101110111
1111110111010001
1111111010111010
1111111011001111
1111111111111010
110000000
100011101
10010101111
100010111010
100100101000
1110110000
10001100111
11101000100
10000001110
1101001000
1101010011
101110101
100100000
11010100
10010011
1111111111011111
1111111111111000
1111111111010100
1000
1111111111011010
101
1111111100111110
1111110011011011
1111110001010010
1111111001011101
100100101
1011001010
1100101000
10100010
100010011
1110010101
11100101101
110000110001
101000000110
100110011110
101101110111
100100100101
10111100000
10000110101
10101100100
10010110100
1101011101
100111110
101100
100
101000
1111111111011011
1010
1111111111101000
1111111000110011
1111110010110110
100001100
1111111101110110
101001000
10011101
1111110111010001
1111101111110101
1111111011000011
11000011111
111001110
1111110010010001
1111110100111110
1111111010100000
1000010100
10000111110
100110110000
11100110100
1101101100
11101001001
11011010111
1010110100
101011000
111101
1111111111111010
10101
1000
1111111110101101
1111110111100000
1111110111001011
10000001011
1111111001101111
1111110100001111
1111111010111000
1111110111010111
1111101001000101
1011000
1111110100100110
1111010110110110
1111010110100011
1111100011100101
101110110
1111111100101100
1111010110
1100110101
10111111111
100000111100
11111010101
11011010111
10000100100
1110000111
1100101
1111111111010011
10
0
1111111111100000
1111111001011110
1111101110011111
1111111110001001
1111111000110001
1111110111000001
1111110010000101
1111110110000110
10011
1111110010011101
1111010110000100
1111101010110101
1111100110110011
1111111110101011
111010001
1111111111111101
1111110000110011
1111111100010001
10001001
11111010
111001000
11010010110
11001110100
10101101101
1011110
0
100001
1111111110001111
1111111110110110
1111110111101111
1111101010000110
1111110011001101
1111110100111001
1111111100100110
1010010
1111101000001010
1111011011110001
1111011110100011
1111100000100110
1111011010001000
1111010111111010
1111111001110101
1101110
1111111110100001
1111111000010000
1111111101101010
11101000
1010111011
1111111101101111
11101011011
10010000010
1001000000
1110110
1111111100010101
10
1111111111101001
1111111101101100
1111101111011100
1111111000000001
1111110110101010
1111101100001111
1111111101000100
1111111101101010
1111100010000100
1111111111111111
1111110001011110
1010111001
1111101101010011
1111111011110000
1111110110001110
1111011011001111
100001101
1010001111
110101
1111111100001111
1111111011111100
1111110111011011
1100011010
10000000011
1111111110100010
1111111111111100
1010
11001
1111111110110101
1111110110111110
1111110110111100
1111101111010101
1111111000011000
1111111101001000
1111111001
1111111110011001
10010111
100010000011
100101000
11010
110101100
1111111100001010
1111100110000110
1111100000001010
1111110011010101
1111101011110011
1111010001011010
1111011110100000
1111110001100000
1111101100100000
1111110011000101
100100011
101100010
1111011
1111111111101011
1111111111110111
1111111111010010
1111111011101011
10101011
1111110101000010
1111110011010001
1010010
111001111
1111110010000111
1011
10101001110
100000010100
100100010110
101111000
1111100111101110
1111100111000110
1111101111101011
1111101000001110
1111101011011000
10110001
1111111110110010
110100000
1111111110100111
1111111010110001
1111101110
110110100
1111111111111110
110
100111
1111111110110111
1111111101001011
110010010
1111111000011111
1001010010
110001
111001011
11011001
1000010000
10000110101
10001101011
100000111000
111010110
1111111011001011
1101000111
1111110101100010
1111111100100001
1111110011110011
100011101111
10000111110
1111110101100001
1111110
1111111101011100
1111111111001111
111001011
101100010
101
1101
1111111111101110
1111111110101100
1111111111111111
1100000100
11111010101
1111111011001010
10011001000
10100101001
11001001100
1100010000
1001101101
1010111110
10100101011
11101111101
1111111010100010
1111111001110000
100001000
10010100
1111101111111000
1001011
1111111001001110
1111111000010010
1111100110110101
1111111011011011
100000010
10100
1111111110111110
1
1111111111111010
1101
101111101
1011111101
1010000111
1111111111101000
10101001010
1001101000
11101000000
101101010
111000
1100000010
111111100
1111110011100100
1111101000000101
11001011110
1111111100000100
1111111111001001
1111100010110101
1111101101101010
1111101010011000
1111101111011011
1111110110110100
1111111111010110
10000000
1111111110001111
101011
11100
11110
1111111111001110
10110011
1111111110001101
1100001110
1011111011
1111101110011100
1111110100010001
101100100
1111110101001111
1010101
110001100
110010100
11110100111
11001000110
100000111101
1000110100
1111111101011110
1111111100101000
1111111101000000
1111110000010101
1111110011010011
10001110
1100001100
110001000
1111111111011011
1111111111110101
1111111111100100
1000111
1100111
1111111101110110
101010001
1111100100
10001100100
1111111011111001
1111111001011101
1010111110
10101011011
10010001000
1111110011110100
1111110010101110
11111111000
1111111000000011
100011001
1111101000010111
110000001
11000
11001001
1111101011010101
1111110001000000
1111111110010000
10010010000
1001110
1111111101001111
1111111100010111
1001
1111111111000111
11001
1111110
10001110
1111101010
1110000111
101000010
1111110110101110
1011000111
1111111011001111
1111111011110010
1111100111100010
1111111011000111
10011111101
1001000011
1111010111
110000000
1001100001
1111111
1010100101
110001110
1111101111111010
10100000001
11001100111
10010101
1111111110010011
101011
1111111111001000
11110
1111111110110010
1000010110
101
101100000
10100100011
1000100100
1111110001110011
1111111010011110
100000100
1111111110000100
1111101000101111
10111101010
1001101
10110000001
10011011110
1111111011000100
1111111011010100
1111100111111100
1111111111111010
1111111110101100
100000011
11001000100
10011010000
11011101
1000100
1111111111111110
1111111111101110
1011
101
1100001
1111111100111001
1001000
10110000001
10000101111
10011001
11000101
110100011
10001110011
11001111001
1100001101
1111001101
1111101011
10000110101
1110111100
100100010
1111101101100100
1111111000000010
1111111110000001
1010101001
111010010
1100000110
11110010
1001110
1111111111100011
100100
10011
1111111110111100
1111111100110001
1111111001011000
100001011
1110000100
1110011111
10001010111
10100000100
10001110
10111111000
1111111110000110
10100011000
10010111011
1000001111
1111111101011010
10101101110
1111111001111111
1001101
1110101111
10010010111
11011010101
1101110110
10101
11011000
1111111110001100
1111111111100010
1111111111000111
1111111111110011
111
1111111111100011
1111111001011000
100010111
110000001
1001011000
1001110110
1111111100
10000111011
100000010101
1111111100111110
10000101100
100000011
1111110010110010
1001111100
1010110010
1110010100
100011010001
1101010101
10100001100
1111110111
111000111
1111111110000111
1111111100100110
1111111111111010
10000
10001
1111111111111110
1111111111111001
1111111111001010
1111110111110000
1111110110011100
1111110011110101
1111111111011000
10000101000
11110000010
100000111010
111110010
1101111111
1111110111100010
100100111
11100101
10010101000
11001010111
10101001111
101110101110
100001100110
11001111011
111101110
100011101
1111111101010101
1001111
101000
11101
1111111111111110
100101
1111111111100000
1111111111000100
1111110100001101
1111101100010100
1111100110010010
1111101101010100
100000001
10011111001
1100110100
1011100010
10000111011
1111111000110111
1111111100111001
1111111110001101
1111111100101101
1111110011100001
1101000111
10101110011
1111111110111011
110010111
100110011
10000010
111110100
11001110
11101
1111111111110110
0
1111111111010100
1111111111000000
110100
1111111001011011
1111101101111011
1111101111011000
1111101101000010
1111100100010101
1111101111011001
1111110100100011
1111101011110111
1111110101000011
1111111101100101
1111101011010111
1111110001110110
1111100010001011
1111101011000110
1111111000001001
1111100011011110
1111101101010111
1111111010010101
1111111111001100
1111111111001111
101111
1111111111110111
1011110
1111111111111011
1111111111100001
1
110011
11001
1111111111000011
1111111101011110
1111111011100010
1111111001000101
1111110010011010
1111101100001101
1111100111110100
1111101101011101
1111100111001111
1111100010010100
1111010011110010
1111011111111100
1111100111100101
1111101100010110
1111100101111011
1111100100001100
1111101111100010
1111110111010100
1111111101000011
10111
1111111111110010
1000
1010
1111111111011101
1111111111111111
1111111111000101
100011
1111111111101010
1111111111110001
1111111111000100
1111111111101010
1111111101000111
1111111101011101
1111111111001110
1111111100110111
1111111111001000
1111111100000000
1111111100111101
1111111011011100
1111111101100001
1111111100011110
1111111101100001
1111111001110101
1111111101101101
1111111110011111
1111111110001110
1111111110010011
1111111111101001
11010
1111111111101001
1111111110111001
1111111111110101
