10101
10000
1111111111111000
1111111111110110
1
100011
1111111111001101
1111111111111101
1111111111101010
1111111110110010
101
1111111111101100
1111111111101111
1111111111110000
1111111111010001
110000
10010
11111
1111111111001010
101000
1100
1111111111110110
1101
10000
1111111111011100
1111111111110100
10111
1000011
1111111111101111
1111111111100100
1111111111111111
11111
1111
1111111111110000
10000010
101110011
110111000
1011001
1110111
1100110
11011000
1011000
1001011
10100001
101111100
11011011
101111
1111111111100010
1000111
1000001
1101001
1111111111111101
1111111111111100
1111111111010000
1111111110111000
0
11
11001
100111
100101
101000
1100
10011111
111010011
1000111001
111100000
110100111
110110011
1010100110
1101101111
1101011100
1000010100
1000110001
1000
1111111110011101
101100
1001100
1010100
11110101
1011100
1
10111
1111111111110101
1111111111000101
1111111111111001
111100
1111111111110011
1111111110110101
110011
1001110
1010011001
10000100000
1111101001
10011111011
11000101111
11001111101
11110101010
101000011101
101011000101
10101101001
1011011011
1111110110110010
1111111000010101
1111111000111101
100100000
110011111
1111011
1111100
11001010
1010110
11001010
1011
1111111111110101
1111111111100001
111
1111111111001000
10000
1010100
1000000001
1110000001
1101010111
10010010100
11001111101
10100100
10000101000
11001110111
1001000110
1111111011111011
1111111000101001
1111111100100001
1111111101011101
1111110110001100
1001000
111110101
1111111100100111
1111111001011000
100010111
101101000
1111111110111000
1000001
1111111111110101
1010
1111111111001000
1111111111000010
10101100
1111111100000011
11010010
1111111101000101
1111111000110101
1111110101011010
1111010110
1111111101001101
1111111000111100
1111111110100100
1111111110101010
1111111100010111
1111111111101110
111111
1001110001
1010001010
11110
110110000
1111110111110011
1111111100000001
11110111
110010001
11000010
1010001
1111111111111011
1001111
111110
1111111101001110
1001101
1111111001100011
1001110
1111110111111010
1111100111111000
1111111001001101
1111110011010101
1111111011010011
1111111001001000
1111110111000111
1111111011101110
1111111111100110
10000010
11100001
111110001
1111111001110010
1010110101
111001110
11000
1111110000001001
1111111000100001
1111111101111100
10
1111111111110111
111
1111111111101111
1011011
1111111010101100
1111111101001011
1111111100111011
10110110
1111110001111101
1111011011001001
1111101101100101
1111101011000010
10001000
1111110011001000
1111111000101001
10100001111
100100
1111110111001011
100101101
1000100010
1111111111100111
1111110111000110
1111111101111110
1101001111
1111110011011101
1010101
1111111010100001
1111111011000111
0
1111111111010100
1111111111100001
1111111111011011
1111111011001010
10010
1111111010110011
1111111000101101
1111101100000000
1111110000011110
1111110111101001
1111110111111010
1110001111
111110010
11100010
111011010
1111110001010011
1111110101001000
1111110100001111
1111110100000100
1111110111101101
1111110101111000
1111110110011000
110011011
1111110110001110
1111110101010010
1111110010100011
1111111010110100
1111111110111100
11000
1111111111011001
1111111111111101
1111111001011011
1111111101011000
1000110
1111110100110111
1111101111010100
1111100010111011
1111111001010011
11010000
1111011011111010
110001111
1111111101100101
1111101010010100
1111100101100110
1111110010111011
1111101111111101
111101110
1110011000
10110110010
1111111000000111
1111101100011100
1111110001001010
1111101111100010
1111110000101110
1111111010001101
10001
1111111111110000
101000
110110
1111111000000001
1111110101101001
1111111100000000
10010000
1111111000110101
1111101010110101
1111111001100001
1111110100011100
1111111000101111
1111111100111010
1111111110011110
1111100101
1111111110100111
1111101010011010
1010011111
1111110011101001
1111101101111111
1111111100000101
1101
1111101110000001
1111101110000101
1111110001010010
1111110010011101
1111111100110100
0
1111111111100010
10110
1111111110010100
1111110111110001
1111110001001110
1111111110100000
1111111111101001
1111110100111100
1111111000001010
1111101000011010
1111101001100101
1111100111001100
11001011
10001001000
1011110101
1000111
1111111110101000
1111110001000100
1111111001001010
11001001
1111110010000010
10101001110
1111111111010110
1111101110100110
1111110101000110
1111111001111100
1111111001111100
1111111111111111
10000
0
1111111110111100
1111111010011101
1111110010010101
1111111010011111
1111101111010110
1111101110101111
1111111100000010
1111111100101111
1111101001101010
1111101100011100
1111110111011100
1111111010110100
1111111100000101
10000011
1110100
1111110101011010
100010011
1111110011011111
10010100010
10101110010
10011000
1111111110100001
1111111110100001
1111111100011101
1111110111011101
1111111111011000
110001
100011
1111111110110011
1111111100100100
1111110010100001
1111111001000101
1111110000100010
1111110110110011
1111110000001111
1111111001010111
1111101011101010
1111100101010011
1111100111000111
1111110011001110
1111101101011101
10100001
1111110111010101
1111111011010011
10100100
1111111101110100
1111101111100101
1001001010
1111111111110011
10010010101
111101001
1111111011110111
1111111010111101
0
10011
10000
110000
1111111100101001
1111111011100011
1111110110010000
1111110111101001
1111101100000000
1111011111111011
1111101001111011
1111100110011001
1011101111
1111110000000110
1111111110100010
1111101111010000
10100111
1111110100001110
1111110100101110
1110000111
1111101100100001
1111110101110100
110011
101101101
1011011101
1101001
1111111011111011
1111111101100010
1111111111101000
1111111111110110
110010
10011
1111111101111010
100110011
1111111101011111
1111110001010010
10010111
1111110000111001
1111110000001010
1111110001000111
1111101111011001
1111100100110001
1111101111111100
1111101101000111
1110011
1111110111010100
1111110010010101
1111111111010010
1111110000011101
1111111111011111
1111111001010111
1111110111110011
1111110101010000
1111111111100001
11101
1111111011100010
1111111111100100
1111111111111000
100101
1111111110110101
1000101
10000010110
1110000101
100101000
101111101
1111110101010111
1111101110011100
1111111100110110
1110110010
1111010111000111
1111011111110010
1111101111100101
1111111010000000
1111101110001110
1111111010000000
1001011101
10010111001
10000000
1111111100011010
1111100
1111111111111001
1111111011011011
101010011
1111111011001000
1111111111100101
1111111111110011
110
1111111101001011
100100011
11110001111
10111000011
11010100
1001000111
10110011111
110010000
1110100110
110110111
1111101101101011
1111011000011100
1111011001100111
1111100110000110
1111111110001000
1101110011
1101101100
11100110001
1000110110
11101111
1100001010
1000111111
1111111011100000
110101000
1111111110111110
10101011
1010
1111111111110111
1111111110011011
110101110
100011110010
11010000000
10011110001
10010010010
10001011001
10010111011
111000110
1111110110111100
110010110
1111111100101001
1111111110110110
11101011010
11101111001
11001100001
100100110100
11110011110
1000001011
10000111111
10011011100
10000110011
1101010010
11100101
1111111111101011
1111111110111101
1111
100001
1111111110011101
1010101001
11010010011
100000110101
100010111011
101000111110
110000111111
110000110001
101100011101
110011100100
100010010011
11111001100
110001001100
101110111001
10011100100
10111110111
11000110001
1110010110
10010011110
11010011110
1111100110
10101110000
1011111111
1111111011110111
1111111111110111
1111111111001011
1111111111100100
100110
1111111111000100
100011100
1111000010
100001010101
10101100110
10100110000
11111111101
100011110000
100100111011
101000010111
101001101011
11010001100
10010001101
100011
11110110010
10001011101
10010111000
1000100110
1000101111
1001110010
110111010
1110010010
101000110
1111111011111011
11111
11010
1111111111101010
110100
101
1111111111110010
11101010
110110111
11000110
1111110001001001
1111111111110110
100011010
101100011
1111111010100101
11010111
10100101111
11000100001
1111111101100110
1111110010110000
1001011000
10001111001
10110011010
1111111101001110
1111111100111000
1010001010
1010000101
1111111101010001
11111010
1101110
10111
1
1111111111011111
1111111111000000
1111111100011000
1111110000101000
1111110101110100
1111110100000110
1111110001001111
1111111011010000
1111111110100001
101000000
1111111001101001
11110011
101111000
110100
1111001110
1100111011
10000001011
1111111011001011
1111111110000101
111
1111111111001001
1111111010011001
111011010
10010000
1111010
1111111111111001
1111111111110001
1000
1111111111110110
1111111111101110
1111111111001001
1111110100111000
1111110101110001
1111110101010101
1111110000011101
1111110000010101
1111111001100100
10001111
11100001
1111111110000101
11111001
11000100
1000101101
1111111110010100
1011010001
1101111000
1000101011
10000110101
1011101010
1000110100
11100111
11011101
100010111
1111111111000101
1111111111001110
1111111111101110
1
1111111111110101
1111111111001111
1111111100100011
1111111011111110
1111111010110110
1111111000010010
10100101
100110011
1111110011001001
1111100000111110
1111101101101011
1111101101010010
1111110111000000
1111101111010000
1111111010010101
1111110010101011
1111111010110101
1111111110110001
10001100010
1011000000
10111
1111111111001101
111000100
111110101
10010
1111111111111001
100100
111110
10110
100101
1111111111110011
1111111100111000
1111111011000101
1111111011111010
1111110110000010
1111110000110000
1111110000100000
1111101100100110
1111100111100100
1111100001100111
1111100111011001
1111110110011001
1111110011101011
1111110011001100
1111110110001111
1111111001010101
10111001
1111111110110011
1111111100001011
1111111010110100
1111111101100101
1111000
1011000
1111111110110111
11111
1111
11111
1011
0
1100
1111111110101011
1111111111010110
1111111110010111
1111110110111010
1111111100001000
1111111011011000
1111111101010000
1111111011111100
1111111100011000
1111111111100111
1111111111010011
1111111110101010
1111111110010101
1111111110110011
1111111110101010
1111111110000101
1111111110101000
1111111111110100
11111
110101
1000
1111111111001011
1111111111010010
10010
1111111111001110
100100
1111111111101001
1111111111101011
1111111110111110
1111111110111010
1111111111100011
1111111111110100
1111111111111101
1111111110110100
101
1111111111101010
1111111111001101
1111111111110101
1111111111101111
1111111111001101
1111111111010001
10110
110011
1111111111100000
1111111111110000
0
1111111111111100
1000
1111111111111111
1111111111110001
