1111111111111111
101100
1111111111100010
110110
1111111111000011
1111111111100010
101110
1111111111110001
100011
1111111111010101
1111111111011011
11101
1111111111110110
1111111111110101
1000
1111111111010110
1111111111110010
1111111111011111
1111111111110110
10010
11101
1111111111010010
1100
101
101111
1111111111101110
1111111111110000
1111111111101011
1111111111101110
10001
100010
1111111111101110
1111111111101101
10001
1111111111101011
1111111111110101
1111111111110000
0
1111111111101101
110000
1111111111100001
1111111110111101
1111111111111000
1111001
1101
10110
1111111111100101
1111
1111111111001100
1111111111101100
10101
11110
101
1111
1111111111101000
1111111111101011
101000
1111111111110011
1000
111100
1111111111000111
110100
1111111111000111
1111111101111101
1111111100011010
1111111100101001
1111111100101000
1111111000101011
1111111001000110
1111111101111111
1111111001100010
1111111110111100
1111111111000001
1100101
1111111100010001
1111111000011000
1111111100001011
1111111110000011
1111111110100001
1111111111101101
1111111111111101
11100
1111111111111111
1111111111110011
11011
1111111111000101
11011
101100
1111
1111111111000111
1111111101100001
1111111100110111
1111111110000011
1111110110000010
1111111100010010
1111111010001011
10010111101
1010000010
1001101
10001110011
10100010111
10101111110
1000110
1111111010110010
100110110
1111111010100111
1111111100010101
1111111100100000
1111111110101111
11100
1111111111101010
110000
1111111111110111
1001
1111111111111001
1111111111110100
1011111
1010010
1111111000111000
1111110111100100
11011100
1111110101111000
11100111
110111101
10111101001
10101000011
11001010
11111000010
10000000111
1011010111
1100101111
1111111010111100
1111110111101111
1111111001010110
1111110010110100
1111110110110100
1111111100100111
100010
101101
11
11000
1111111111111111
1111111111101100
10000100
1010000011
1000110000
110111
1010100011
1000011011
10101110110
1101100010
10100010010
11101100000
10010001011
10001
10010010100
1101111
1111100110101010
1111110100110001
1111110011000110
1111100111011001
1111101100010110
1111101110111111
1111101110000110
1111111010010111
1111111111010100
1111111111011000
101001
11001
1111111111110100
1101
101011010
1100000110
100010111
1101001100
1010001
101011000
11001011110
1010111001
10111111111
1011100
1111111001011010
1111101010010110
1111011110000110
1111101110010000
1111100101011011
1001010001
1111111011010001
1111111011101101
1111111011110110
1111100011111000
1111101011110010
1111111011000010
1111111101001011
1111111110110100
1111111111110101
1111111111111110
0
100111
1011100000
1011001100
1111111001110111
1100111001
10000001001
1111111000111111
1111111000100101
1111101101010111
1111011110111100
1111001011110110
1111010011010001
1111010100101000
1111011111100101
1111100010000000
1111101001010011
1111110110110110
1111101100101001
1111110101001000
1111110111111000
1111110000010010
1111111101010110
1111110110000011
1111110011111110
1111111101110000
100
1111111111111100
1111111111111000
1111111111101010
101001101
1101011
1111101001001001
101011111
1111111101100110
1111110110011010
1111011011100100
1111101000110101
1111001011111110
1111001110000011
1111001011101001
1111010010101101
1111100010011101
1111010111010110
1111101001111100
101001
1111110011100010
1111111111011110
1111101101000000
1111110010011100
1111111111000110
1111110001001100
1111110000101011
1111111110001001
1111111111101101
1111111111111111
0
1111111111000100
110000010
1111111101000101
1111111111111111
1011010001
1111110111110010
1111100101011101
1111011101111111
1111111110010100
1111110111111001
110101111
11010101011
1111101110
1111110000101110
100110000
1010101110
1111111010001000
1111101110011011
1111110100000111
1111111011011110
1111111110000110
1111110001100011
1111110011110000
1111110101010100
1111111111100001
1110100
10100
1111111111101101
101011010
1110011101
1111111110100011
1111110001011011
10110100
1111110101111101
1111101111111101
100010010
110011000
11010111101
101110101101
1001111000101
101111101111
11001100010
100011000011
1111111111110100
1111101101011111
1111111100010011
1111111011010011
1111110010001110
10000101
11111100
1111111000001100
1111111011101011
1111111111001101
1111111111110010
1111111110111100
101001
1110000101
10110001010
10111000111
1111111001110101
1111110010001000
1111111100111010
10011011
110110
100000000010
110111000010
101000000110
10100110100
100110010111
1111111110011101
1111101001011101
1111110100010000
1110000
100011000
1101100001
10010101
1011001100
1111111111011110
1111110111001101
1111111001100010
1111111111001111
111110
1111111111111110
10
100111111
10000111110
1111011011
10000010010
1111110101100101
11111110000
101001000001
11110010101
10010010001
10011011011
1111100010
111100011
10100100011
1111101101111011
1111111111110000
1111111101110010
1100001010
1111110010011001
1111110011111011
1111111011101111
1111111001000100
1111100100100111
1111110111000101
10110100
11111111
10111
1001
101
11000100
1011011100
1010111100
10011111111
1111110001
1001010111
1111111000100111
1111111110011111
1111111000001100
1111111000011110
1111110100011011
1111110011110001
10110000011
1111111011110111
1111110010011101
1100010
1111111101000010
1111101111101011
101000011
100111
1111111101010111
1111101110101101
1100101100
1100001101
111101110
1000000
1000010
1011110
1101111
111100110
1111111100000100
1111111100000101
1111111011110100
1111101011011101
1111101001001001
1111011101011000
1111110100001110
1111100001001110
1111110001111010
1111110100111111
1100100101
1111101010010100
1111110000111100
1111110111000000
1111111101010001
110000000
1111110001111101
1111111010101110
1111111001000100
1001100011
1000111101
1000100010
11111001
111011
1111111111111100
1111111110101111
1111111111100001
101111
1111111100110000
1111111000110011
1000101011
1111111101001100
1111101000000011
1111111101001010
1111110010110000
1111100101111001
1111100001001001
100101111
10001001
1111110111011000
1101011100
100110010
101001010
1110011001
10000000101
111111111
11010
110110111
10101110110
1011010100
1010001110
1111111111111110
1111111111000000
1111111110111111
1111111111000000
1000001
1010011110
1111111011000010
1111110111100100
1111110111100001
1010010100
11001010101
10010000011
1111100110100100
1111100100101100
1111110010010011
1111111100011000
1111110101100100
1000010001
1111110101111011
1110101011
10011100000
1110010011
110011100
1001010111
1111111111000001
10111011
10111110
111011010
10
10001
1010
1111111111000101
111100010
10100100
1111111010001010
1010110011
1111111111000011
1111110011000101
10011000
11000101111
1111110101001010
1111110110110010
1111101110011000
1111110001110101
1111111100111000
1111111011100001
1111110000011000
1111110010111010
1011101010
1111111001100000
1010111010
110110000
101110010
101111101
1001000110
1111001
1111111111111010
11
110
111100
110011111
1111111000010010
10110010
1100100
1111111010111011
1111110011111010
1111110110010000
1111110001100100
1010001000
1111111011011000
1111111001010010
1111101110100001
10110001
100010110
1111111110101110
1111111001111101
10111101
1111111110111010
1111111000
1101100100
1111111111000011
111100110
111011101
11001000
10001101
1111111111101010
10001
1111111110011101
1111111101101110
10000
101110011
1111111100011011
1111111001001011
10000011010
110001001
1111110011110111
10110000
10101001101
110100110
11000001
1010110
1111111010000101
1111111001111110
1111111100000000
11001001
1111110011011110
101111000
10001001001
1011000
1000111110
110101011
1010010
1111111111111010
1111111111011011
110000
1111111100101101
11001
10110
1111111100000110
1111111011011011
1111111100010001
1101110011
1111101
1111110011110011
1111110101011111
1111110000000101
100111
1111111000011000
1111110000101000
1111110011000011
1111110111010110
1001001
1111101011011001
1111111001010010
1010000101
10010011000
111110000
1111111111010111
11
11001
1110
110
1111111111111110
1111111111001110
1111111011111010
1111111011111100
1111110000110011
1111111101010100
1111110110110010
1111111111110011
1111110111011000
1111110010101100
1111110101111100
111100000
1111111111110110
1111111001100000
1111110100001001
1010011101
11101010
1111101
1111111100001101
1111111000110100
111010100
100000110
101110110
1001011
11111011
111100
1111111111100010
1111111111100110
1111111111011001
1111111111100001
1111111111101000
1111111101011110
1111110000111110
111011101
111111010
1111111101100010
1000011101
1111111001000100
1111101011110010
10000111
1100111111
1001011
1111111101000101
1111100111110101
1111110101000100
1111111111010000
1111111000100000
11101101
1101101
1111111011111110
1111111000101100
1111111011100110
11011
1111111111010101
10101
1111111111101100
1111111111100011
11001
101001
1110001
1111111111110001
1011
100001001
1111110010101111
1000010011
101100
1111111000110000
1101011001
1111111111010011
1111110110111100
1111111101010001
1111110000000101
1011101110
1111111011100101
1111111011111100
1111111111110011
1111110111101001
1111110001101100
1111110000011111
1111111000001001
1010
1111111111111001
1111111111001010
1
1111111111100100
0
1100001
110001111
1100010101
10100001110
11011101111
1111101010
110100011
100110011
1011010101
1111111111011011
1000
1110001010
110010110
1111111101111100
1101100110
101011010
1111111110101000
1111111001001000
1111111001000000
1111110011000110
1111110111000100
1111111100110101
101010
1111111111011010
10010
1111111111000110
110
11010
1010
10011111
10011110
1000011110
10101101110
11100111110
11100001000
1010001010
10000010
10101100111
110101000
11100101111
1111111110111110
110011101
1111111100111001
1111110111110000
1010001111
100111100
101101001
1111111111100011
1111111010111100
1111111111010000
1111111111101101
0
111
1111111111111001
100
1000011
11010
1111111100011000
1111111011011101
1111111111111000
110100010
110000110
111100100
100011110
1111111111110000
1011110100
1100100001
1001000101
111010100
1010010101
1000011111
101001110
1011110010
1011100
110000010
100111110
1111111111011000
1111111111011011
1111111111101100
10010
1111111111110100
1111111111110101
100011
10010
1111111111101010
1111111111101011
10000
1111111111110110
1000100
10011
11
101010011
1111111111001000
1111111111001001
1001001
1111111110011001
1111111101111001
101100001
11100001
1111111111011111
1110001
1111
101100001
101011001
1001110
1111111111101000
1111111111111101
1111111111001001
11110
