1001110
1111111111111010
1111111111100010
1111111111111001
1111111111011101
0
11011
101111
10111
110001
101000
1111111111100100
1111111111100101
1111111111111100
1101
10100
1111111111100110
1111111111010010
1111111111000110
1111111111010101
110000
11000
1111111111111100
10010
1111111111011001
1111111111110110
10101
1111111111100010
1111111111111111
110111
1111111111111000
110110
1111111111111001
11111
110010
100010
111111
11001
101101
11010
1000111
10000
10100000
110101101
111101101
100010110
1111111111110110
1000
1010010
10010111
100101
1111111111101000
1111111111101001
1111111111101000
1111111111110001
10110
1111111111110011
1100
10111
1111111111111111
1111111111010001
1011
100101
1010111
1110101
11010
1001000
1111111111110101
1111111100010001
1111111111011000
1111111110100100
100101
1111111111100011
10111001
1000000101
100111111
10100100
10000110
1110101
101001
1111111111011011
1111111110110111
1010001
1111
101100
1101
1111111111111110
1111111111100111
10100
1111111110100100
111110
11100
1111111111010110
1111111101001110
1111111101001001
1111110010010001
1111111000110101
110111011
1111111110001010
1111111001100000
1111110101010001
1111110100110111
10000000
10111001
1111111011000000
1111111110011010
1111111110001110
1000010
1111111111100011
1111111110011111
1111111101011000
11011
1111111111101110
1000
1111111111111100
1111111110111011
1001
1111110110110111
1111111010001000
110101011
11011010
10110010
101111
10010010011
100100011
1111111010110000
1111111010010101
111110010
1111111110100010
10000
11110000
1101111
101100000
10111100
10101101
100001101
1111101
1111111111000010
1000
1111111111101110
100000
101101
1111111111110110
1111111101111011
1111110110011101
1111110010010000
1111110011100011
1111110100011101
1000011
1110011100
111011111
1111110110100001
1111100101000011
1111111001011110
101110100
10000000110
1111111111100111
1111110010010101
1111110111010100
111010100
1101110
1110001100
10100001001
1111101100
1111111111000000
1111111111000011
101001
1111111111101111
1111111111100001
1111111111101111
1111111111101110
1111111010101000
1111110110101000
1111110101010011
1111101010110001
1111110100101101
1111111010011011
1111110011001001
10101
1111111110110110
1111111011100011
1111110111011001
1100100110
11001010001
11111010
1111111010110001
1111110011100101
1010011
1111111011111110
110101
100000010001
10100111101
1010010100
101100111
10010001
1111111111100011
1000
1111111111110110
1111111111101001
1111111011010100
1111110011001010
1111110000100000
1111101101000011
1111101101000101
1111111000010110
1111101101100100
110011110
1111111111001000
100000
1111101111110000
101011101101
100110101011
100001010
1111101101100110
101101111
1111110100011101
1111110101110111
10011010101
100111000000
11010110111
10001111000
100111111
10010111
1111111111111111
11011
1111111111010111
1111111111101111
1111111110010010
1111110001001010
1111101111101001
1111101100001100
1111101100010111
1111111100101101
1111101110100110
1111110011011111
1111111010001111
1111111011000111
1000011111
110000001111
100000001
1111110010111111
1111101111110110
1001001
1111101011010101
1100100000
101001001111
101010111111
100100100011
11000100011
1000010001
1100000
101
1111111111111111
1111111111010000
1111111111111101
1111111010110000
1111110100110101
1111110010000101
111111001
1011011111
1111000110
1100110000
11110001101
100110101011
1101111101
10100000011
101101
1111101111100000
1111011110110101
1111100110001011
1111111000010011
1111110001101011
1111100100
101111010011
101110111100
11111110101
10101110000
1001010000
1011110
1111111111011100
1111111111110110
1111111111100111
10100
1111111010011011
1111111011011110
11111110
11000001011
101111011110
100110001001
100000101100
11010110110
10111111011
10110000011
10011111100
111
1111100111000110
1111100100111110
1111100001101011
1111100111111010
1111110101100011
11110010111
111101011001
101100101011
10001001110
10001010111
1001001100
1100001
1001
1111111111101111
11
1111111111001011
1111111001000110
100101
1100100011
10011001101
100010001100
10111101001
1100100111
1111101010011011
1111110000001110
1110100111
11100110101
1111110011110000
1111100110100101
1111100011011010
110101110
1000000011
1110001100
100001000010
101101010000
11000000010
10000100
10110101
100100011
10001101
1111111111001110
11
1111111111101000
1111111101111001
1111111100000110
1100101001
10010000001
10011111111
1101100011
100000010
1110001111
1111111101011110
1111110010001000
1111110110000010
1111101110010110
1000110011
1100110
1111101011101010
1100111001
1111010000
100101011011
100100110000
10011011110
1111111101100010
1111111000011110
1111110011100000
1111111011101111
11101
1111111111011110
1111111111111010
100101
1111111100110001
1111111011101110
1001100110
10010010111
1111110111111100
1111000110
1111111101011110
1111110110110101
1111111001101111
1111101010110100
1111110011001001
1111101111001111
1011110001
1010100101
1111111000101011
110011111
111010011
1000110001
110011000
1111110010010010
1111111000101000
1111101010001011
1111110001111011
1111111101001000
1111111111100111
1111111111100001
11000
11101
1111111111010100
1111111100000100
10100
1111111100011100
11100000
1111111011010110
1111110100010101
1111101010011111
1111110000111000
1111110011010100
1111111100100011
10101011000
1011011101
1111111110000100
1111110100010000
1111111100111011
1110001111
1111111010000001
1111110110111000
1111100110110111
1111101100100110
1111101100000111
1111110110100001
1111111100011010
1111111101110111
1111111111101110
1111111111110111
1111111111100011
10000
111011
1111111100011011
1111111100111010
1111111110101001
1111100111011001
1111100110100111
1111111001010111
1111111000101101
1111101101111100
10001100
1100111001
1111110110011111
1111110001001111
1111110010110011
1111100110010011
1111111110000001
1111101000110011
1111101111101001
1111111110110010
1111101000010011
1111101010110100
1111101111110101
1111110101001000
1111111010000010
1111111111100101
1111111111111110
1111111111011101
1111111110110100
10011000
100101100
1111111111
10101110
1111010100111110
1111100001100010
1111101011010111
10100010101
11100011111
1110001
111100001
1111111010111010
1111111001000011
1111111100100011
1111110000100011
10111
1111110100001001
1111110100011000
1111111111111010
1111111010010011
1111100100010010
1111101001001101
1111110010111101
1111111001100101
1111111111110010
0
1111111110111111
1111111100001001
100001
1111111111111110
10100111101
1110100000
1111110110111100
1111110011001110
1111111110110011
10101001000
110111000
1110100010
100011
1111111010011110
1111111010000111
101010011
100111001
111100010
10110001
1111110100101011
1111011000101010
1111101001101100
1111110001000111
1111111000111010
1111110110011001
1111111100000011
1111111111010101
110
1111111110101101
1111111110001000
1111111001110001
1111111101111100
1000
11010010
0
1111110101001010
1111111101111000
1111001001
10010010010
1111111100000110
1111110010001010
101011101
1111111110101010
1111111001001011
1111101110000001
1111101001100011
1111110101101110
1111110100001101
1111010001110110
1111101011100100
11001111
1111111110000101
1111111001010110
1111111100110111
1111111110011101
1111111111000011
1111111111101011
1001110
1111111000110001
100001001
111010
1111111110010011
1111111011010010
1010011100
1111111010100110
1100110001
10001010101
1110011011
1010110110
111111010
1111111110101100
1111100111011001
1111101010111101
1111111110100100
1111101110110100
1111110110110100
1111101100000000
100111010
1111001010
1111111101110100
1111111011101001
1111111110110000
1111111111101001
11011
110100
111111
1111110111101110
1111111101101100
110101010
100101101
1111111010110111
1000111111
1111111001111100
11100001
101100101
1011000110
111100000
1000110
1111111101100100
1111111111110000
111000001
100111001
1111111110010100
1111111000000100
101110
11010001001
10011010011
1111111100101111
1111111111101000
1111111111100100
1111111111111001
1111111111100101
1110
1111111111101100
1111111000000100
1111110110101101
1111110011010010
1111111100101000
1111111110101000
1100000
111001100
101011011
1111111101001110
1111111001010000
10001000101
10101111
1111111101000000
1111111100110010
1111111011011101
11000001111
1111110110101111
1000110101
10010111111
10100011101
10010110111
111110100
111
10
10100
1111111111110011
101001
1111111111110010
1111111100010110
1111110110101011
10010110
1111111110010011
1111111111100110
10010100011
10111111010
111010100
10010
1011000100
1101010
11111111
1000111010
1010001000
1111111111111001
10111011101
1111110111000001
1111111101000000
1111111111101100
1001110011
1111100001
1000010111
101000101
1111111110111110
1111111111111101
1111111111101100
1111111111111101
1111111111110011
1111111101001010
1111111110000111
111011011
1100011100
1000010
10100110111
1110101001
1011000
1111110111001110
111110101
1111110101100110
1100100100
10111101100
10000001101
100001101
1111110111010010
10110011
1111111101000000
1101111
111101010
1100001001
110011111
1011100
1111111111101100
1111111111110011
1100
1010
0
1111111110111100
1111111011011111
1111111110011010
1111111110100000
1111111011111110
1111111111010001
1111110100010100
1111111000001010
1111101010011100
1111110111010101
1111100110010001
1111110101011001
10010110011
1111111100011111
1111111101100000
111001
10001111101
101110011
1111111111010111
100001001
110110010
1000111
110011
1111111111111111
1111111111101100
1111111111111010
0
1111111111100100
1111111111010001
1111111101010111
1111111010000110
1111110111111100
1111110111101111
1111111010101011
1111111110011101
1111110101100100
1111111011011110
1111111011010001
1111111011010011
1111111111
100001000101
1110110000
11010100010
10000100001
1011011001
11101000
110100101
11011000
100100010
10100101
1111111111000110
1111111111110010
101011
1010101
1000
1111111111110010
1111111111011000
10000
1110100
1111
111011
101000111
1000010001
1000111100
111110100
1100001000
10000000110
10101111100
10001010111
1011100101
1010110110
1000110100
100100011
101010000
101001110
1001010
111011
1111111111111000
1111111111111010
1111111111100000
1111111111111001
0
1111111111000000
1111111111011000
1111111111111111
1111111111111100
100011
1111
11001110
11000100
100
10110010
1001000
10100110
1101110
10001011
1001100
1111111111111010
1100
11110100
110101
1111111111101001
1111111110110011
1011
1111
1111111110110100
11
1111111111111111
1111111111100011
