1110001010101
1001110110
1110110000011011
1111101100010111
101010011111
1111001111110110
1110000110111011
1101100001001
1111000000110100
10000110
1111011100010000
111111010110
1111010110001101
1111001011000001
110011101001
1110010101010011
111110000001
1111011101111010
11000000101
11010111101
1000101110
1111101001101000
100111101
1111101001010100
11101000110
1001011100
1110100110111111
10110000000
1111100000111010
1010110100
