1111111111011001
1110110101111000
1111100100011111
100011010
1000100110111
1111110111000110
1111111101101111
11111101111
1110110100110001
1110110001101001
1110100101111011
1111001011110000
1111011101001001
111010101101
101101011111
1111000010101011
1111011100011011
1111111100000100
101100100010
110110110100
1101010110
1010010011110
11011111000
1110100110001110
10000111001
1111110100110110
1110011001000001
1111001111110001
1010100111010
10001001010
