10111101111
1111101110011010
1111011011011111
10111011001
1111001100011001
1110110111111010
1110110001011101
1111010111011111
1110010000001000
1111010011110111
10010100100
101101101101
111101110111
1110100011101001
110010000010
1110110001000001
110011000101
1001
1111100101
111101010100
100110000010
1110111001011110
1111000110001100
100001000010
1111011010101000
10000011010
1110111011100111
100110111100
1111011000010101
11111010101
