1111010011100111
1011001000010
1111011001100010
1101110010001001
11110001000
1001001001101
101110100011
1111010100111111
10111101110111
10010001111011
11011010101
11110001
1111100000111010
1111110000101111
1110010111000000
1101110010
1111010000101001
1000001111110
11010101010
1110100011110011
100111000111
10000000110
1010011001011
1111100001011001
1111111000100010
100111101110
10000100101011
1111101011010101
1111101111101111
1111011010110000
