101111011
11101011
1111110010001000
1111111111100101
1000000000101
1111111010101011
1111011011011100
10111101110
1101110101010000
1110101001000110
1111111011101001
1110001111100100
1001000110001
100010111001
1111111110001110
1111100100000101
110111011010
1111110110110101
1110100110001011
110111110001
1111111111000001
1010000111110
1111001011010000
100000011101
1111001101101111
1001101011111
1111000101110101
10111110101
1110001110101100
1110101001110000
