1111001111101011
1110001001111100
100101110111
111100000110
110100110100
1111100001000001
101011101111
101110010101
110100001100
111110111001
1001011111
101100111110
1101011011011010
1111110011110101
100000011001
1100010101
1110101001111111
1111101000011101
1100101011001
110101101011
110110111
100000010011
1111101101000100
1111011000100111
1000011000100
1111000001100011
1111000010010110
10011000011
1010000111100
1111111010
