1111111100011111
1111101
1111111101100011
1111110110110100
1111111111001010
10000110
10111011
1111111111110110
111110111
11010101
101111
1001
1111111110101111
1111111010110001
1111111001011000
1111111100010100
101110
11001111
1111111110100001
1111111100110110
1111111001100100
1111111100110110
100110110
1111111111111101
1110111
110111001
111011011
1000011111
1111111101000000
1111111111001100
