1011
10010
1111111111111101
1110
10101
11010
1111111111010101
100000
101110
1100
1111111111110101
1111111111010101
101011
110
10000
1111111111000011
10001
1111111111000110
1111111111111011
1111111111010111
110110
1111111111010111
1111111111111100
10110
1111111111100010
1111111111000011
100010
1111111111111011
1111111111111111
1111111111111010
110
1111111111101010
1111111111011001
1010
1111111111010101
1100
1111111111110010
100110
1111111111100100
1111111111001001
1111111110010000
1111111111111110
1111111111011111
100011
1111111111111011
1111111111010011
1111111111111110
1010
1111111111100001
1111111111110010
1111111111100101
1011
110001
1111111111111010
1111111111101001
1111111111101010
1111111111011110
1111111110111111
1111111111011010
1
10111
11001
1111111111100111
100011
100011
1111111111010000
1111111110001101
1111111111011101
1111111110001110
1111111111110111
10101
101110100
100101001
10000110
1110111
11001010
111101
101101
1111111111101101
1
1101
1111111111111001
1111111111100000
111110
1111111111101110
1111111111110100
100001
1111111111111011
1111111111110110
1111111111001101
1111111110100101
1111111111000111
1111111110000101
11101101
111101000
111000000
100110010
1111111111111110
1111111111100011
100100101
111011000
1010000010
1111000000
111000000
11100110
111100
1000111
1111111111111100
1111111111011111
1111111111100000
1111111111101100
11001
1111111111110000
1111111111010100
1111111111111011
1111111111111111
1101101
1111111111101011
1111111011100100
11010
1111111110000011
1001101
10010111
1111111101100100
1111111111000100
1111111000000111
1110001111
10001111
111010011
1111111011001111
1101100110
1010101111
10000001011
10000100110
111100010
1100100
10111101
10001100
101000
10001
101101
1111111111110010
1111111111101011
10101
11100000
101101100
1111111111011101
1111111101001110
1111101111110110
1111111111111001
110001
1111101100010111
1000000
1111111000001100
1111110010100011
1111111110111011
100011110
1111111101011011
1111110110110101
1100101111
1111111011010111
1111101101100101
1111111011010000
110111
100001111
1111111
1111111111100011
1111111110101111
1111111111001000
1111111111110011
1111111111100011
10
100110001
1011000
1111111011101001
1111111001001100
110100011
1110101101
1111111010011110
1111110100101011
1111110011111110
1111111000000111
1111110000110111
10001110001
10011010100
1111111100110000
1111110100001000
1111111001011001
1101001000
1111110000011100
1111101000100101
1111111000010101
111100010
111101110
1111111111110010
1111111111010001
1111111111100100
1111111111111100
1111111101011011
1001110
1111111111000101
10110100
1111111100011010
1100101
10000100111
111010010
1111110011000000
1111101101010111
1111111000001000
1111101101011011
1111111011100011
110110111
1111110100100100
1111110100100010
1111101000011101
1111111000010010
100001000
1111111110101100
1111111010001011
1111110111010110
1111111011110000
100011010
10111111
1111111111100010
1110
1111111111111001
1111111110011011
11010111
1111111000110111
1111111011100001
1111111111000110
1111111111000011
1111110011011010
110101001
1111111101110110
1111110011110001
1111100011011111
1111111100000000
1111100100011110
1111110101100110
1111111110000000
1111101100000111
1111111000010110
1111111111010100
1111101010010111
1111111110111011
1111111001010011
1111101110101100
1111111110111001
11110010
11110010
1111111111011111
1111111111101101
1111111110110100
1000
110011001
1000011
1111101111101001
11101100
1111111100101101
1111111100011011
1000010001
1100100111
101011010
1111110011111100
1111100110110100
1111101011110001
1111100011101100
1111011101111010
1111101100001001
1111100100001101
1111101111111011
1011010000
10001010101
1111111111000101
1111100110010011
1111111010011110
101010101
11110001
1111
110
1111111111110000
1111111110111111
100001001
101010000
1111111001101111
100101100
110111011
1010011
10000100111
10011111001
1111111101001111
1111111110100010
1111100111100111
1111111100010101
1111110110000101
1111101010101001
1111011101111110
1111101001111111
1111111001100011
1111111011000001
1111110011100100
1111111111000001
1111110000010001
1111111110001100
111010111
101011
1111111111011110
1111111111001010
1111111111011100
1100101
101000101
110100000
1111111101100010
10111100
1100101110
1001001111
1100101
10110000001
100110001
10101110
100110010111
100111011110
10001001011
1011000100
1001100001
111100101
1111111100101000
1111110100100001
1111110110011101
1111111100110101
1001101001
11000110
1001101111
10101011
1000100
110
1111111111100101
100011
11001110
100011001
1001110111
1111
10111
1111110100000110
1111110000111101
100001110
1111111100110010
101111001
101000010000
110110110000
101100101010
11111000110
10100111110
10111110
1111100000
111111001
1111111000011101
101001101
1000111111
1111111100010001
101111001
10111001
1111111111111010
1110
1111111111010111
11111
10110111
10001010011
111111111
1111111010110100
1111111010110101
1111101100110000
1111110100011100
1111110000001011
101001
111011101
11011010000
100000111001
101101000101
1100111011
1111111110011100
1010101000
100101110111
11011010101
110011101
101100100
10110010
1111111111010011
110000010
1010
1111111111100111
1
1111111111101111
1001
11110111
10011010101
1001111001
1111111100010010
1111110100100010
1111111100101010
1111111100011111
1111110000101100
1001101011
11100000100
101101111100
11100111010
11100001011
100111001110
10000000111
10110101001
101011011110
11000010100
110110
110101100
11000100
100001
101110100
1111111111100001
10110
1111111111011000
110000
1111111111101111
100100110
101110111
1111111110100001
11100001
1111110001110001
1111111011001110
1111111101110000
1001010
10010010000
11000111110
11000010011
100100011101
100111001011
11110001010
10111000001
10100101000
11101110111
1111111101000001
1111110100111001
10101101001
11100011
11101011
11110
1111111101011110
1111111111101100
10111
1111111111100011
1111
100101110
1111111
1111110110101011
101000010
110010001
1111110111001101
1111110100001100
1111101111100100
1110110110
1111111100111101
111100001
1001010000
1100011111
10010111100
1001111000
1101000000
1001111101
1111111000011011
1111111111100111
10110010110
101111100
1111111000
11100001
1111111110110000
111111
100101
1111111110111001
1111
111100100
101010101
1111111101100110
10010000111
11101110111
101010001
101001
1111110101111000
1111110100100010
1111111001001100
100100011
10000100100
10111110111
10010001100
11001010011
100001100001
10101011110
1111111110111111
10000101100
1000110111
110101011
10001110110
1111111111100100
1111111111000010
1111111111110001
11111
11010
1100011
1011010011
101111000
1111111100110101
100010010
111000101
100010010
1000100000
1001010000
1111111011101000
1111111101110000
10100011111
1011010010
1100111111
10101101100
100100111110
11001111001
101001011001
1011000000
11111001
11110010
1100000010
10001001101
1111111101010111
1111111111001110
1111111111001101
1111111111110111
1111111110011101
1111111111101100
111110110
1110011001
10000011101
1111101011100011
1111110100100100
1100000
1101010100
1111110110100011
1111101000000100
110011
1111111011110010
101010110
10011100100
110000110
111110111
1010101100
1001010111
1000111101
1111111111000111
101101101
1101100100
1010000010
1101
1111111110011111
1
1111111110110111
0
1111111100100011
1111111100111110
1000110000
1100101
1111110110001000
1111101011010100
1111110110011000
110000001
1111101111101101
1111101110000100
1111101001001100
1111101010010110
1111111011011110
1111101100100011
1111100100100111
1111110101110011
100
1111110011001000
10000100101
1011001
111010010
1111111110111100
11101100
1111111111101010
10
1111111111110010
1111111111111101
1111111111111100
1111110110001000
1111111010011001
1111111110111111
1111111011011000
111001
1111111001011001
1111110010101010
1111100101001011
1111101101110110
1111100111011110
1111011101001100
1111101111110101
1111111101001100
1111110011111100
1111111101001100
1111111010001001
1111110111110011
1111110110010010
10010010000
110110100
1010011
1111111010101111
1111111101011100
1111111101100101
1111111110100000
1111111111101101
101101
1111111111101111
1111111010001011
1111111011010110
1111111111101111
1111110111111100
1111110101010101
110111
1111110100010100
1111100001010111
1100111
1111111100110010
1111110000100001
1111110000010111
1111111100110001
1111111011010010
1111111101000100
1111111110000001
1111110100011000
1111110100010110
1111111011100111
1111111010000010
111001000
1111111011101100
1111111101001001
1111111101001100
1111111111101110
1111111110001010
1111111111011101
100101
1001
1100001
1010101101
1100101
1111110000101101
1111111111000110
1101010100
1111111000010111
1111111101001000
1111100111010010
1111001101100001
1111101001110111
1111110001100101
1111111010011101
1111111110100100
1111111000000011
11101
1111101110011001
1111111010000110
1111111001111110
1111111010001010
1111110101100001
1111111100101110
1111111110110001
100
11001
1101
1100
1010011
11000100
101010000
101000110
1111111000011100
1111111011001010
10001101
111001001
111001110
11000
1111111010011001
1111101101100100
110100011
11100001
10000010
1111111110001001
1111101111011000
1111110010001101
11011101
1111110110100110
1111111101101000
1111111011001001
1111111001000110
1111111110001111
11001
1111111111111100
1111111111100100
1111111111010100
1111111111100010
110000
1111111101111011
1111111111000101
1010
101111011
10000110100
10010001110
1110001
1111111010000100
1110011101
1010010101
101011111
1111110010101100
1111110110111111
1111111100000000
1111110101001110
1111111001111100
111011000
1100000
1111111111110111
1101100
10111
11000
100111
1111111111011110
1111111111111010
1111111111111000
1111111111110011
1111111111111100
10011111
111001110
1010010000
101001011
110111100
1000111101
11011100
100110110
1111111101011010
1111110111100110
1111110101010110
1111101110101111
1111110110100111
1110100
1111111100101011
1111110101010110
101110101
1010111
1111111111101100
1111111111110110
1111111111110111
101101
1111111111011101
11
1111111111111110
1111111111011000
101
10011
1111111111111000
1111111111110010
101101
1110
10100
11101
111010
10011000
10000001
1111111111000100
11100
11011011
100100
1111111111111001
10000011
10111
1111111111011110
1111111110010110
1111111110101100
1111111111011101
11111
1111111111010111
110001
1111111111011011
