11010
1111111111001110
10001
1111111111111101
1111111111001010
1111111111101000
1111111111110011
1111111111110111
1101
0
1011
1111111111011101
100111
1111111111100110
1111111111010110
1111111111011001
110
100110
1111111110111101
1111111111110000
1111111111000010
11
0
11000
10000
1111111111001111
1111111111111011
1111111111100011
110001
1111111111110010
11100
1111111111011011
100
1111111111011010
1111111111001011
1111111111111001
1
111010
1000
10110
101000
10000
1111111111001010
1111111100110001
1111111110011101
11
1010
1111111111100011
1000001
101111
1111111111000101
11100
1111111111011010
1111111111100000
1
1111111111111011
1111111111100011
101011
111001
10111
100101
1111111111100100
101111
1111111111001110
1111111111111011
10110110
111011
10000001
11010111
10110111
11010000
1001001101
1100110010
100100010
1111111111110111
1111111111110111
1101011
10110101
1110001
11101
1111111111100011
101
10000
10100
1111111111111110
1111111111011010
1111111111100110
1111111111011011
1000000
1111111111001010
1111111110000010
1111111010010111
1111111101001010
1000001111
1010010001
100110101
1111111110000010
1101001001
1010110001
1111111111101111
11101100
1101000
1110111100
1111111110101100
1111111000100000
110111001
111111011
100011010
10001100
1111111111000111
10001
10010
1111111111101001
1111111111010101
1111111111111010
1111111111110000
1111111111010101
1111111010101010
1111111000110011
1111101111100000
1111101001010010
1111111000101101
1111111000100001
1111110001110010
101110111
11000001
1101101011
1111110111011000
101100000
11011000110
1110100
1100000010
1111111100010011
1111111101000000
1111111000100001
1111111110101010
1111111100001111
1111111010111111
111
1111111111111000
1001
1000111
1111111111010010
1111111110110011
1111111100101110
1111110101111011
1111110010011011
1111101000110111
1111110010110011
1010
1000001
110000110
1000111110
1111111100111000
1111111100011101
1111111101101010
100001
10111111111
1111111011010000
100110101
1100111110
1010101000
1111111111000001
1111111101110011
1011101
1111111101010000
1000
1111111111111000
10101
101011
1000
1111111110001111
1111111101000000
1111110110010011
1111101001101010
1111101101011010
1111100001000000
1111110110011101
1111111101101100
1111110101011000
110001111
11111110
1111111101100001
10110101010
1111110011101100
1111110011100010
1111101000100111
1000100
10000011001
11010100
10000010011
1111111101111100
1111111011111000
1000001
1111111101110101
111
110
11110
1111111111110101
1111111110010000
1111111100011100
1111111011110111
1111101111111100
1111100000110000
1111100001001111
1001111111
1100100010
1111101111100001
1111101011110100
1111110111100101
10100
1111111111100100
1111100110111001
1111110111001010
1001110100
1111111010011000
1111110010111110
1101100001
111100110
1100100101
1111110110010100
1111111101100001
1111111101000111
1100
11100
1111111110101010
1111111111011001
1111111111000100
1111111010011101
1111111101011000
100101111
1111111100100111
1111111111001010
11111011
1001110
10110101101
10100011100
1000110110
1111110000100101
1111101010011101
1111101010000000
1111101111111100
1111101101101111
1111110011010011
1100001110
10011
1111110001111010
10110001010
101011011
1111111110001000
1111111110100011
1111111111101111
1111111111110000
11111
1111111111101001
1111111111101000
1111111110110100
1111111011111001
1111111011101101
1111110111111100
1111111100110111
10111
1111100111001100
111011110
1111110100101010
1001100000
1111111
1111101111100001
1111111011000101
1111110001001010
1111110110101011
1111100111100111
1110110
100110101
1111110111010100
1111000011
1101111
1111111111010111
1001110
111110
10000
1111111111101000
100100
1111111101010000
1111111111111001
1111110011000010
1111110110100010
1111111010100101
1111111101000110
10000010010
1001111000
10000100000
10001100100
10000100011
1000010100
11110100
11110
1111110111011101
1111110111111010
1111110000011011
100000011
10110010
100001110
1001011
1111111101010001
1111111001001000
1111111101111010
1111111111110110
10110
10001
1111111111111100
1111111110011101
1111111000010100
1111110100101100
1111110001101010
11011010111
10110110
100111000110
1110011001
1111111010100001
10001100110
1010101111
10100110000
1111010111
1111111100001001
1111110010001100
111111110
111001000
1101101
1001110111
11101100110
10001110101
1101010100
1111111010111110
1111111101010110
1111111111110000
1111111111110111
101100
1111111111101001
1111111110110111
1111111000000101
1111110000001011
101010011
10111111000
1010101
11000111001
1111101001111111
1111110110010000
100010110
11111001000
11011001001
110001100
1111110001011001
101001001
101
1111110110111011
110010011
10100010100
11000000101
10011011100
1011110010
1001010
1111111111010101
1010
10010
1111111111010111
1111
1111111111011111
1111110111010001
1111110100101101
1111111000100101
111110111
1111111010100010
1111000011
1111111111110010
1001111011
10100111000
11000100011
11011000010
100010001001
1011000110
111100
1111101010110011
1111110101101001
1100111111
1111110011101010
1111111101010110
1001111100
100011
10000100
1111001
110010
1111111111111100
11
101
1111111111001010
1111111011100011
1111110011101101
1111100101010001
1111101110101101
1111110001100001
1111111110111100
1100010101
10001100100
10001011110
100010011100
10001111010
10110010100
1111111001110111
1111101110110010
1111101000001001
1111101010011010
1111111000001110
1111101110111001
101111111
1111111001111111
1111111011101100
100101001
100000
100000
10110
1111111111100100
1111111111111101
11001
1111111100010110
1111110011000010
1111011111011101
1111011010010101
1111111001011010
110001100
1010010000
1110111011
111000111
10000010110
101000010001
1111111010001111
1111110100100110
1111101001011111
1111101011101101
1111110101001010
1111100110000011
1111101110001000
1111110010101111
1111110101111000
1111110101110111
110000010
1111111111110100
1010
1111111111110010
1111111111110001
1111111111111100
1111111111111100
1111111010110010
1111110001100101
1111101101010010
1111110101111001
1110011111
11110111000
1011010
1110101101
1111001101
1110110010
1111110110010001
1111110000011000
1111100111000000
1111100010000100
1111101101001100
1111110101111000
1111100101110110
1111101010101111
1111101001010100
1111110011111110
1111110001010110
110000111
1111111111111011
10110
101
1111111111110101
1111111111111101
1111111100010110
1111110011100011
1111101000001000
1111111000010110
1111111000011010
10111010
10001000111
11001000111
11000010011
101000111011
1111111001000101
1111100111011111
1111011000111001
1111011101101110
1111010111101011
1111100001011010
1111111101011101
1111100110111011
1111100100010001
1111110010111001
1111101110000010
1111110110011000
1111111111100111
1111111111101000
1111111111101110
101100
1111111111100101
1001
1111110111001101
1111101110100011
1111100110000110
11001011
1111001111
1000110010
11100111011
1110100001
101001100111
1000001001011
1111110110100000
1111000101110101
1111011000100001
1111101111100100
1111101111111000
1111011101110100
1111101100010011
1111100100010001
1111110010111101
1111110010001000
1111111001101110
1111111001111001
1111111111100100
1100000
1111111111100110
1111111111101010
10001
10110
1111111000000100
1111101110011111
1111101001001101
1111111110001000
10111010
1010010101
111111000
1000110000
101110001111
10101111110
1111010100101111
1110100110011000
1111101101101001
100011100
1111111000010110
1111011111100100
1111111011100000
1111110111000011
1111111111000010
1100010100
101100000
1111110001001010
1111111101011011
1010010
1111111111101001
110001
1111111111001110
1111111111101000
1111111101010100
1111110010001110
1111110011000011
1001001000
101101111
101001001
1000110000
1110001001
10011101101
11101000001
1111100011011111
1111101001011011
1111101001001010
1111100110111111
1111110100011101
1111101011010011
1101110000
1001100100
1111010001
100010110
1111111011101110
1111110100011100
1111111011110001
1010111
100
1111111111011000
1111111111110111
1111111110110000
1111111111010001
1111111010100010
111110101
111000101
1100101110
10101110110
11000000011
1111111110001000
1001111100
10101111001
10001001000
1111111010000110
1111011110101011
1111101110010010
1111110000100110
1111101010011010
11010100
100111011
1111111010011111
1111111000101000
1111111000011110
1111110000110011
1111111001101100
11011
1111111111011110
101010
1111111111110000
1111111111001010
1111111111111001
1111111110011000
110001001
1000010
1001101100
111010101
10110100001
10011001110
11110000100
11000010010
11001111000
1111110110011110
1111111011001010
1111111111100001
1111101111001110
1111100010011001
1111110101111011
1111110111000010
1111110001010101
1111110110111100
1111111001110001
1111110111010001
1111111001010001
10111
110001
1111111111110111
1111111111110100
101010
1111111100010010
1111110110110110
1111110110000011
1111110110111000
1111101110011000
1111111100001111
1111110001110000
1110001
1011100011
10001001001
11000111
1111111100010001
1011010000
10010011111
1111111110010010
1111111000100010
1
1111110001110101
1111110100010111
1111111010110101
1111111011100101
1111111000011011
1111111101001101
10
1111111111010001
10010
11010
1000
1111111010011011
1111110100110101
1111110000001110
1111110100101100
1111110000001100
100001111
110001111
1101110011
10111101110
11100000100
1101011100
11000110
111101110
1001000001
1111011101101110
1111101110001111
1111111010110001
1111110011101100
1111110100111101
1111111110100000
1111111101111100
10011
1010010
110111
10111
1111111111110011
1111111111001101
1111111111001011
110010
1111111010001111
1111110011000001
1111110000000000
1111101100000000
1111101100101010
101101
10000110001
101111001
1111111111010100
11111111
1011011
111101111
1111111011100000
1000
1111110000110010
1111101100100111
1111110000011010
1111110110110001
1101010
1111111111000011
1111111111110110
1010111
100100
11010
1111111111100111
1111111111101000
1111111111001111
1001
1111111101010101
1111111101000111
1111111010010001
1111110111110000
1111111001010111
1111111001100111
1111111000011000
1111111110111110
1111111100010101
1111110101101101
1111110100100010
1111110001111011
1111111101111001
1111111010101110
1111111000011011
1111110100010111
1111110100001101
1111111000010111
1111111111000110
1011011
100001
1111111111111110
1111111111110010
1111111111100100
110101
1111111111110101
1111111111101010
1001
110000
1111111111001100
11010
1111111110000001
11
1111111111111011
1111111111110100
1111111111000100
1111111110100101
1111111110100101
1111111111100100
1010
10111
1111111111110000
1111111110000001
1111111111101010
1111111111101001
1111111111011100
110101
1111111111011011
1001
1111111111100000
0
1111111111111100
