11110
0
1111111111100100
1111111111101010
110111
1111111111100011
10010
1001
1100
1111111111010011
1111111111001000
1111111111100111
1111111111011010
100000
1111111111100011
1010
100111
1111111111110010
1111111111101000
101101
10000
1111111111101110
1010
1111111111100110
1111111111111000
11000
1111111111110010
1111111111010011
10110
1111111111010111
10111
1111111111001100
111000
1111111111101011
1011
1111111101011101
1111111110100100
1111111110111001
1111111110001110
10010
1111111110111111
1111111111000000
1111111110111001
1111111101100000
1111111101101111
1111111111111010
1111111110100110
1111111110010101
1111111110010110
1111111110000011
1111111110111100
1001
1111111111101000
1111111111011100
1111111111100100
1
110101
1111111111101111
1111111111001101
1111111111010110
1001101
1111111111101110
1111111111101000
1111111101010011
1111111110110111
11000001
10111
1111111010110111
1111111101001110
101111100
1111111110000100
1111111111101100
100011
1111110100000110
1111110010001110
1111110000110001
1111110111011011
1111110110011100
1111110110001100
1111111100100011
1111111111110011
1000
11000
1111111111001000
1111111111110011
101111
1111111111111000
1010
1111111111010001
111110
1111111111100001
1111111111001101
10111000
111010101
1011110110
111111011
11001000100
11000001000
1111111100101000
1111110101100000
1111101110111101
1111101111101010
1111011111111000
1111100111001010
1111111011110011
1111110100010001
1111110010110010
1111111001111010
1111111011101011
1111111110100010
1111111101011001
0
1110
100111
1111
1000001
1010010
1111010100
10000011001
1110101000
100100001101
11100101110
1111111101
10100100101
11101000101
1000110111
1000011100
10000001101
1111110110011111
11111
11010011
1111110110010110
1111111110101001
1111111010010001
1111110101000001
1111110100110101
1111111001001010
1111111010010011
1111111110000111
1111111110001010
1101110
11000
11100
10010010
1101001101
11010000000
11011101011
11101111000
1100101100
1110111010
1001100101
111001100
101011001
1001011011
1101011111
1111111100100010
1111101110111101
1000100
1111110101001000
1111111101100010
1111110011000110
1111111011000111
1111101110110101
1111011010001100
1111110011100001
1111111000110111
1111111011101000
1111111110110101
101000
1111111111100000
11101
110101101
10000110000
10101110010
100000001101
11000001
1111110101100111
10111110110
1010111010
10000011100
100001011
1100110011
1111110111100100
110011110
10101011111
1111111100111110
1111110110000101
1111101110100111
1111101110111111
110101000
1111101001110001
1111101110110011
1111101000111100
1111101101110110
1111111100101010
1111111110011101
1111111111101100
10110
111101
1100101001
10110101001
1000101101
101100001
1111111101100010
111100001
10100010
1111111110111001
10011111100
110111110
10100101101
1100001010
100100011
111111
1111110011110110
1111100111111011
1111100011001101
1111000110110011
1111011101011000
1111100000001101
1111110011100010
1111100101110101
1111101111110101
1111111011100100
1111111111000101
110001
1001
1100011
1111000000
10011101010
101000100
1111111101111100
1111111100010100
101010110
111000011
11010011101
1111110111110101
1111101100110000
1010110000
101110110
1111111010010000
1111100100111100
1111101011110100
1111101011100011
1111100011100011
1111100101000111
1111001100100110
1111101001010000
1111100010001001
1111010011010110
1111110000110010
1111111111000101
100100
1111111110110100
10
1111111111111100
1010000010
1011100110
1101100000
1101101011
1111111110101100
1111111010010110
1111111110101100
11000101001
110111010
100101000
110001111
100001011000
100111101100
100001110011
100011001100
1101110111
10011001001
10110101011
1001011100
11000011000
11001111000
1111111001010010
1111111101100011
1111
1111111111110111
0
10
1101
101011101
1011100010
10011101101
10001010101
1111111011110110
1111110110000111
1111101110101100
1110110111
100000100
1111101011011011
1010111001
100000100100
11001010000
1000100111011
1100111101010
1110000000110
1110001111010
1011010000010
1001001101001
1000011100110
111110000111
11010100000
101000000
1111111111110001
10000
10
1111111111000101
100111
1001111010
1110110001
10011000100
10111011
1111110110101011
1111111010010100
1111111100100010
10001101001
10111011011
1101110
1111111011110100
1111111110111000
1111111101010011
1011011110
101110000111
1000110001001
1011011010110
1010101110101
1001000111010
1000101101111
101111001111
11001001110
101000000
110011
1001001
1111111111110100
1010001
101011
11101001
1100000000
10001110000
10110101
101001
1111111000001110
1111101011100011
1111111000001000
101000101
1111110110000000
1111111001001000
1011101001
1110010110
10001101
1110110
100001000
100101110000
110110001111
1000110011111
111011101010
100111010111
10100100100
110101101
100001
1100
1111111111110110
1111111111101001
10101
100111
1101101111
110001101
1100100
1111111011001001
11001100
101110010
1001111
1100100111
1111110010100110
1111101011000011
1000011101
111000110
100010
1111101100000110
1111111110000111
1111111000011100
10000100000
100100101111
101011000110
100101011010
11001001110
1100100101
100111011
110000
1111111111101000
1111111111101110
1
10011000
110100010
110111010
1111111000100000
1111111011010100
11101101
10010000001
1111101011111110
1111111001110101
1111110011001101
10010
10000100110
10100101
1111111111011000
101001111
1111111001011000
10010111
1111100101110110
11010111
10010100110
10010011100
1101110110
1011101010
110011011
100011
101100
1111111110111110
1010
111000001
1010100101
1111111101101000
1111111100011110
1111111111010111
1111111010110001
1111111000110110
1111110001111101
10000010110
1111111010101011
1001010010
1111101001
111
1111101101110011
1111110101110110
1111110010111000
1111111001010000
1111101010111000
1111110011011000
10000001110
10011111000
1100110010
1111010001
110111010
1111
1111
1111111111011110
1010011
111101011
1110011011
110000010
10000101011
100100100
11010011
111000001
110011111
100110010
1111111000101000
1110110101
1111111100110001
1111100000110000
101011000
1111110010110010
10000110100
1111110010110110
1111111011011101
1111110001001001
1111111101110110
1111011000
111110101
111001000
110011011
1111111111100100
1111111111101000
1111111111111110
11111000
1111111101001000
110011011
1000111100
100100101
1000001000
100101
11100100
1111101010111011
111001
1111111000011000
111101000
1001111010
1111101011001000
1111111101001100
1111110100010011
1111100101101101
1111110010011011
1111111101000010
1111111011001100
1111101100011010
1001000
111011000
1001110100
100001011
100001
1110
1111111111101000
11000100
101000
111000011
1001101001
11000011
1111110000110001
1001010
1111110111011111
1111110100101111
1011010101
1111100110001001
1010001
1000111000
1111111010101001
1111100101110010
1000
1111111000001100
1111111000000010
110111001
11010010
1111111011011010
1111111111011111
101110101
101101111
10010110
1101100
100110
1
1111111101110010
100000
1111111101110110
1111111101011101
1111111000011010
1111111101100110
100110110
1111111101101010
110000100
1111101001101000
1111100111001010
1111110011111111
1101101
1111111100000011
1000001011
11110011
10001101
1101110001
1111111110111101
1111111111010000
1111110011011100
1111111000111101
1111111000111100
101101000
1101110
1111
101
1000111
1111111100110100
10110010
1111110011011010
1111110011101110
1111111010011011
1011110111
1111111100111110
1111111010001100
1111111011000110
1111111111101010
1100010110
1111110101010001
1011011011
1111110011001011
1111111101011010
10101101
1111111101001100
1111110001000101
1111111001111111
1111110101011000
1111110000011010
1111110001010000
1111110101001000
1111111101010101
1111
111
10011
1111111111011101
110110
11111111
1111110001100001
1111111010111101
1001111001
1001010
1111111100011000
11000
1111111000111110
1111110110100010
1111110000100101
1111100101011111
1111110111110110
1111111111011010
10010101
1111110001001100
1111100101001001
10000001
1111110100111101
1111111000101011
1111110010000010
1111110010011100
1111110010100111
1111111101110000
1111111111111010
1010101
101001
1111111111101001
1111111111111101
1011111
1111111100000110
1111111111110100
1
10001101001
1111111011101110
1100000101
1111111000110011
101111000
1111110100101011
1111110111000110
1111110101001010
1111101100100011
1001111010
1111111001101101
1111111000110001
1111111110000001
111111000
101100000
1111111110001111
1111110011100000
1111111010010000
1111111100000001
1111111110110011
101
100000
1111111111101111
1111111111111100
100110
1111111011001011
1111111001011111
1111101010111000
10010000
1111111001101111
1010011
1111111000001100
1111101100
1010010110
10100010110
1010101
1111110111110000
1111110111001000
110001010
1010
1111111011011110
1111110111000011
1111111000111010
1111111111100001
1111110101100110
1111111010100011
1111111110010010
1111111111110110
110001
1010
1111111111101110
1111111111110010
10100
100001100
111011110
11011010
1111111111000100
1111111111011110
1111111011100110
1111110101001110
1111111011100010
1111111010100011
1111110011111110
1111111010011001
1111110111011100
1111111111111001
1001000001
1111110111000000
1111111010010100
1111110101100000
1111111111111110
1000110
1111111010001110
1111111100100001
1111111111110100
0
1111111111011111
1111111111111010
1111111111100101
1111111111111010
1111111111110111
100010100
1011110001
111100100
1011100011
1010011111
111011000
101110000
1000010111
1111110001111110
1111110010010111
1111110101010011
1111111110001111
1111111110111101
1111110110110011
1111111001010011
1111110010000000
1111110110110110
1111111101101000
1111111100001100
1111111100010111
1111111101110001
1010010
10011
1100
11
1111111111010110
1011
1100
1111111111110001
1111111111110011
1101
1110011
100000
100001110
11010101
10010100
1111111110111001
1111111111101101
1111111110011101
1111111011010011
1111111011101100
1111111011111010
1111111111000011
1111111101011011
1111111100110000
1111111011101001
1111111111010110
1
1
10110
10001
101001
1111111111110101
1111
1111111111101100
1111111111011110
1111111111000100
1111111111111111
1111111111111010
1111111111111011
10110
10000
1111111111100101
111
1111111111111110
101110
0
1111111110111011
1111111111111110
1111111111101110
1111111111110110
111101
11010
10010
101001
1111111111011011
1111111111101011
1111111111101011
1111111111101010
1111111111110010
