1111111111011001
11001
101
1000
100111
1111111111011111
0
1111111111000100
1110
1111
10000
1111111111010010
1111111111110000
1111111111101011
101011
100000
111
1111111111110011
1111111111100010
1111111111111011
10001
110001
1111111111111001
1111111111111000
100100
1111111111010100
1111111111100110
1111111111100001
100100
1100
10011
1111111111101110
1
11110
101
1011011
1111110
101001
1011011
10110000
110001111
10111010
100000
10110
10101011
1011010
1111111111010101
1111111111011111
110000
11011
1111111111101000
11001
101000
110010
1111111111000101
100000
1111111111101101
10001
1011011
1111111110111101
1111111111011100
1111111111110001
1111111111110110
10001
111000
1111111111100101
1111111110111110
11
1111111110111010
1111111100101101
1111110101000111
1111110001000110
1111110111111011
1111111010000000
1111111100001100
1111111101001001
1111111110111111
1111111110101011
1111111111001010
1111111111101011
110000
1100
10011
11111
10011
1111111111111111
1111111111101000
111
10110
1101
1111111111000111
1111111101100101
1001
11
10000011
1000010110
1100001101
111011111
111111
100011010
1000100001
1110000010
1111111010111100
1111110001011111
1111111100110011
1111111100111111
1111111110110110
110001
100101
1111111111110011
10000
1111111111010110
10011
11011
1111111111111000
10
10
1111111111111100
1011010
1111111111001000
100010101
1101001010
1110110110
10100111111
1100110001
1111111110101101
1111111010011111
11111010
1111111101001110
1111111111101011
1111101010100101
1111110000000110
1111111110110101
1111110111011101
1111111101111111
1111111000010010
1111111001011010
1111111111001001
101011
0
1010
1001
1100
101
10011100
1111111110000011
1111111111010111
11000000
1011000000
1000010100
10010000111
110001001011
10111010101
1000001011
1111111011101000
1111111110110011
10001010001
10100000101
101100
1111101001110111
1111111010000110
1111111110110011
1111111
1111110001001011
1111110101011000
10010010
1001000
1000110
1111111111011001
11
101111
1011111
100101111
1111111100111010
1111111111010101
1011111
1000101001
10011110101
1101100000
10101010101
111110000
101000111111
1111010111
1111110110100101
1000101001
10001100110
1111110011111001
1111111111100101
1111101111101111
10000001
111001001
1111111110110011
1111110110110110
10011
1010101
110001
1110
1111111111111111
11110011
10101011
11011010
1111110101010011
1111111100000000
1000
1010101101
111000000
10101001100
1010101110
1111110011010101
10001100110
1001000111
1010000
1111110110011100
1110100010
1011001011
1111111100110101
1111101110000010
1111110110
110000
1110111
1111111100101110
1111111110001000
1111111110111000
1111111111100010
1001
101011
10110100
110010111
1100010
1111111010110010
11101010
1111011101
11101011001
10101010101
101001000100
1100111011
110111
1111111100001011
110111110
1111110101000011
11101111000
10010100
1111011110
1001101111
1011100110
101101100
1111110111010010
1111110100111011
1111101000111110
1111101111000101
1111111111010000
1111111111100010
1111111111110101
111001
100001
11111001
101
110000100
101000101
10000011110
11010001111
10100011011
10001011101
1110001110
10100101111
1111110010111101
1111111000000000
1111110011100010
1011011010
111101010
1111111101001100
1001111
11101101111
10011111
1111111011000101
1111111111111110
1111110110001100
1111111111101000
110000110
11011
1111111111110001
1111111111111100
11101110
101100001
1100110
100100010
1011110010
100000011010
11011010100
11000001000
1100011100
10000000110
1111100100000100
11101111
111010001
1111111011011101
11111111010
101100100011
100010011000
11010111
100011010010
10011001000
11101001111
11100000101
1000100110
101100011
100111111
1111
1010
1111111111011011
0
10111001
1010010100
1000010110
111000110
11001101011
101000100
1001011000
11101101
11000000111
1111111111010111
11111110101
10001010011
1001001000
1011100010
101001000100
1011101111
1010100011
10101110000
1101010001
11000100101
100000001110
11101101100
100111000
111011
1111111111100110
1111111111010110
1111111110111001
1010001
111000
10
1010010001
11100
1011111001
1010110
1001001010
1000110010
10000011101
10010111000
11101001011
1111111100001001
1111100111010101
1111110111101111
11000010010
1111101100011011
1111110010000100
1111111010010100
1111111100110110
1111010010
11010001100
10101111010
10011010
1010010
101
1111111111011010
1111111111100101
1110
100010111
1111110111010000
100101110
1111111010011100
1111110101010111
1001001110
11000101101
1010001000
11111001001
11011010110
1001100100
1111101010000001
1111110001111110
1111111100001111
1111011110001010
1111110010100010
1111101100010100
1111101100101100
1101101
11100001001
11001111101
1010001110
10000
1111
1010010
100000
110100
0
10010101
1111100111011100
1111110100001000
1111111000010010
1111110101101101
1111111010010010
111100001
10000000001
1100010010
10011110011
1111111101011110
1111100101111101
1111101111100010
1111100110011111
1111111101001110
1111111110011111
1111110111001000
100000101
100101110010
11010111000
11011101110
110111000
11100
10111
0
1111111111111111
1111111111100010
1111111111110010
1111111110101111
1111101010111000
1111110001100110
1111100111011100
1111101001100110
1111101011001111
111110100
1111111000000111
1111111011100001
1111110001100110
1111110010101010
1111110100110100
1111111011101101
1111101110010000
100011000
1001101011
100000010
100011110100
10110100000
1010110101
10101001111
1000100100
1001011011
1111111111011011
1111111111101110
1111111111111011
110
110101
1111111101101111
1111110101110000
1111101100110100
1111011100100001
1111100010000111
1111011101000111
1111101000111000
1111101101011010
1111011101100111
1111010101000101
1111011111100011
1111110101110110
1111111001101110
10001100000
10111010011
1111111111
10101111010
10100111011
1111111001010101
1111110100001111
100101101
110110111
101000001
110100
100101
100
1111111111011011
1011111
1111111100010110
1111111011110010
1111111010011000
1111101000101011
1111100010100011
1111011110110001
1111011011111110
1111011110011100
1111101010011111
1111100100110001
1111110110111001
1111101101010011
1111100000001000
1111000001
11100111111
10100010000
1001011111
11110110
1111111101100101
1111111010111101
1111110101110100
101001000
1111111100010001
1111111111111100
10001100
1010
1101
1011101
1111111110101001
101101110
1111101110111110
1111111011100000
1111111110000111
1111101011110110
1111010101100111
1111101101100000
1111100001111100
1111100010110010
1111110011110010
1111101010011010
1111100001111000
10010010001
11001101001
1100001110
1111111010100010
1111110101101011
1111111011011011
10110010111
1001001
10110000
110
1100000
1111111111100000
1111111111011100
1111111111011101
1111111110000111
1111111110001010
1000001000
1111110011111100
1001111111
10101000000
1010010010
1001000
10111001
1111100011000010
1111110111001100
1101001101
1111110001000101
1111101000011011
1111101111101011
1111111101000110
1111110011000100
1111110011110100
110011
110011110
1000111010
1111111010000111
1111110101000111
1111111100111011
10001101
1111111111011001
1000110
1111111111101111
11001
11100001
111000001
1000011101
1100010110
10001111001
1101001111
1001001
1111111011101110
1111111001011111
111000101
11101101101
1111101001010100
1111100010000110
1111011111111001
1111100100100011
1111010110111010
1111101010001011
1111111011001111
1111101111100101
1111110010000101
1111110110100100
1111101001010011
1111111000110110
1000001
10
1111111110111100
0
10110100
1111111110001011
100000101
1011001110
1101101111
100000101
101010110
111000101
1100110
1110100010
1111111011100010
1110110110
1111111011100101
1111110101110011
1111110100110111
1111110111001011
1111011101111110
1111110000111011
1111100111000110
1111110000100101
1111110011001101
1111110111011101
1111100111000001
1111111001111001
1000100
1111111111010110
10011
1111111111101010
10111
1010111
101011001
110001010
10001101010
10101100100
11100111
10000101100
10100011000
1100110101
11111110001
11011111110
1111111110010001
1011011101
1101001011
1111110111010101
1111011101001111
1111100110011100
1111100100001111
1111110001000011
1111111010001101
1111110010110110
1111110011101001
1111111110100110
1111111111111000
1111111111111011
10100
11001
1101
100001100
100000111
100100000
111100
10011000101
1011110000
1010001011
10010111001
10110110011
1111111000000010
1111100001
1101101101
10010110001
10010011011
1111111001100001
1111111100011110
1111101101101101
1111011110101010
1111110010010100
1111110011101001
1111110100111001
1111111100101001
10000111
1111111111111001
111110
101001
1111111111101111
1111111111100110
1111111110101011
101001
1111111011110001
111000
110111001
100110100
100111001
100100110
1111111111001110
1100100000
1001010110
1111111010000001
1001010110
1010100011
1111110111111101
1111111011101101
1111111010000101
1111101110100011
1111110001111101
1111101100110100
1111110010000001
1111111110101000
1000000
1111111111110000
101
1111111111110011
1111111111011010
1111111111100111
1111111111110100
1111111111011000
11011100
1100010101
1010000100
1110100
1111111101011111
11001001000
1010011111
10011100110
1111111111011000
1111111010110111
1000101
1001001001
10010010111
1100010101
1100000100
1111111101000111
1111110111010011
1111110100111000
1111110111010001
1111111101111100
10
1111
101111
1111
1111111111111100
100000
1
1111111110010010
1111111101100010
1111111110000001
1111111110100101
1111111101001110
1111111010111111
1111111111010110
1111111100101100
111011011
1010011101
11101011
1111111110111101
11011100
1100011010
10001100111
1110101001
100010
1111111111111110
111101
101
1001
1110
1111111110110101
1011
1111111111000101
1111111111010111
10110
1111111111110011
1011
1001110
110000
0
101110
10011
1111111111100100
1001
1111111111011110
1000011
1111111101100011
1111111111011101
1111111111000001
0
1111111110010111
10111
10111010
10111101
1111001
1111111111110011
11111
1111111111110100
1111111111101001
1111111111101100
