1111
11001
1111111111111110
1111111111111000
1100
100
10000
100011
1111111111000110
1111111111110101
11100
1111111111100100
101110
1111111111001011
1111111111111000
1111111111101001
10010
1001
1111111111101110
1111
100011
1111111111100111
10
1011
1111111111110110
1111111111011000
1100
100000
100000
1111111111110111
1111111111110111
100001
1000011
1111111111100100
1111111111110001
10010
101000
0
10110
110111
111100
11110
1111111110110000
1111111110110001
1111111111101111
1
1111111111000000
100001
1010
1010
1111111111100010
1111111111101011
11100
1111111111111111
10001
1
1110
11010
1010101
1111111111111100
1111111111100010
11
101011
1111111111000110
1111111
1011100
10000111
1110
1001011
1111111001111100
1111111110101111
1111111011000100
1111111101000000
1111111110011110
1110001
10011010
1101
1111111111010100
1111111111100010
1111111111110100
1111111111101010
1111111111011111
1111111111001010
1100
110100
1011
1111111111100110
1111111111101010
1111111111110011
1111111111011111
1111111110101100
1111110
1001011101
1101001000
1010101010
1110000100
10001010110
1000001111
1111111010101100
1111110100100001
1111110110001000
1111110010111111
1111111011001010
1111111110000100
11
1111111111100001
1111111111010100
1111111111000100
0
11100
1111111111111000
1111111111100100
10101
11000
100
110
11001
1111111110111000
1111111110001101
101110000
1001010101
10010101101
10100111111
10010001100
10001100000
100001111
1111111001101011
1111111101110000
10100110
111111100
111101
1111110101000110
1111111101100110
1100011
1111111110101000
1111111010111001
1011011
11001
1010000
10011
1111111110111101
1111111111110010
111
1111111111101000
10000101
1111111100011010
1111110111100010
100000111
1111110110011110
1111110010110010
1111111110110011
1011000111
10001011110
1111111100100010
1111111010011010
101110111
1111111011101111
111000011
110111011
1111110101011000
1111111110001001
111010011
110110111
1111111101001110
1111111110010010
10110010
1010011
1111111111100010
1111111111111010
1111111111001000
111110
1000110
1110111
1111111001100111
1111111001100011
110101000
1111110111011000
1111110001110110
1111110100100100
100001101
1111101100000011
1111111100000100
10000100110
10101000010
1001001
1111110001110001
1111111101000100
1111110100101111
10100001
1111111000011101
1111111011001100
1111110111101110
111110001
110111111
10110100
10111
1111111111110000
1111111111011110
1111111111101011
1111111011110110
110000111
1100101000
1111111010101110
1111111001111001
1101001
1111111001100011
1111111101100001
10101000000
100100100
1010101101
10110000100
10011100101
1111111010101011
1111101111011111
101100001
1000001110
1111111111001010
1111111001001000
1111110011011111
1111101011100000
1000001101
1110101001
100110001
1111111111111011
1111111111010110
1111111110010110
1111111111110101
1001
1111110011
1110101000
1111111011001011
1111110001101110
1111100001000011
1111101100111100
1111101101001101
1111110110110000
1111110000010101
1111111110100110
1111110110000011
1111100011010001
1111111011011110
1111101000100001
1111101011100000
110000
1111110111101110
1111111110011101
1111110111011001
1111101010000011
1111000
101101001
110100100
110
100010
1111111110100100
10011101
1111111111010110
1100101
111111
1111110110101100
1111110100011110
1111111101010010
1111110110010001
1111110111010000
10101110110
101011111
10110111
1111111100011010
1111110000110111
1111110101000011
1111111111010111
1111111110001010
1111110100011000
1111110011000100
1111110101101010
10101
1111111010100110
1111111110010011
110111100
100010010
1111111111110001
1111111111111111
1111111111110110
1111111110010000
1111111110000111
1111111001110011
1111111001001111
101100
1000010110
111111001
1111110010001001
1111111000101000
11111100
1101010111
1100111011
100010110000
111100110
101100100
1111110101001111
101100
1111111010100011
1111111011001110
1111111000100001
1000010001
1111111001000010
1111111101000000
110110101
101001101
10001
1000110
1000
1111111100101111
1111110110110111
11110
110111100
1111111111011001
1111110100011111
1110100101
1111101110100110
1111111100010010
1111101110111011
11101
101010010000
101110110001
100001001
1111111100100001
1111110100100101
1111111011011110
1111111001101000
1111110101111100
1000100
1000001101
101010001
10101110
100010110
11001011
111011
101010
100
1111111101100101
1111111110101111
1010011110
101011001
101111
1111111111100101
1111110111110101
1111111000101011
1111111101101011
1111111101100100
10000000100
111100000101
111001001010
110100011
110011
10100110111
10000111
1111001001
1111111111111010
10001111100
1111101001
1111101110
10100000
1010000
11110
110111
1111111111100110
1111111111101010
1111111011100111
100001101
1100001101
1010100001
1111111000001100
1111111010110101
1111110010011001
1111100111110100
1111110000110010
110110101
101110001111
1001111010100
110001000000
10011001110
11010111
1001101000
10101111011
11001001101
1000001001
10010000000
10000000110
10100001001
1000011001
1111111111010001
110100
101011
1010101
1111111111110001
1111111110000111
100001010
110011111
101111001
1111110100110010
1111101010000001
1111110101101101
1111110010011000
100101000
101011000010
111110001000
1000101100010
111001000
11010000
1111111110000010
10111010
1100100101
1111110011100010
10111110111
10110101001
1011000110
1110110001
1010111110
100111
110
101011
0
11111
1111111111011101
1111110
101100100
10010100011
11111001
1111111000000001
11011011111
100000010101
100100001001
1000101111010
111111000101
100010001001
11001
10011100
11010100
1111111101100011
110101100
10100100000
10011111000
1111011111
1101011100
10010001011
1000100000
10100000
1010
100
11
1111111111001011
11010
11010110
1001000100
11010111100
1111000010
110001001
100001001001
110011111000
101100111011
100110111101
11010011010
100001001110
101010011
1111111100010001
1111111110110011
1111111110011101
1100011101
101011110
1100000111
1010000100
1111010100
1011100110
11001100
1111111111010110
1111111111001011
1111111111101010
1111111111111001
1111111111110100
10110
110011011
1111110101
100000010000
101010001011
101011010100
101101110011
101001000000
1110010
1111101010010011
10100101110
10100100001
1111111111111100
1111101010101001
1111101111100001
1111111011110100
1111100001111010
10000000001
111001000
11010101
1111111110000011
1111111100101010
1111111101110011
1111111100001000
1111111111010000
101100
1111111111110111
10100
1111111111110011
1011001110
10011101011
10110110111
100010010011
11000100111
10110010010
1111111011111011
1111111011101000
100111010
1001000000
1111111100110110
1111110001001001
1111101100011100
1011001
1111111001100010
1111011011111001
1111111101100100
1111101101011111
1111111011000100
1111111110010011
101000011
10010
1111111111101000
1111111101111100
1111111111101010
1111111111010100
11110
1111111110000100
1100111001
1100001100
11010101000
10101101100
111010110
1111111001110000
1111101001111111
1111100100010001
10100011
111111111
111011110
1111110100000011
1111101011000110
1111111101011110
1111111011111101
100011011
1111111100001110
1111110101111110
1111111101000011
1000110
1111111111011000
1111111011000000
1111111110011110
1110101
101010
1111111111100000
1111111111110111
1111111101111100
100000111
1101101010
11010001000
1111111110001000
1111111110101100
1111111001010100
1111110000101110
1111110010111001
1111101101010011
1111111100100000
111001010
1111111000011010
1111111011000010
11001100111
101100011
1110101011
1111111011101011
110000
1111111100111011
1111111011100101
1111111001101100
1111111101111110
1000
10001010
10011
1111111111111001
1111111111111100
1111111011101000
1111111100010100
11110111
10011000
1111110110111111
11001100100
1110101110
10101110
1111100101110011
1111101100110011
1111110110110000
1111111010111101
101100100
1111111001101101
1111111010111011
1111111011110010
1111111011011011
1111110001101111
1111100101001101
1111101101011000
1111111101000111
1111111010100101
1111111111010000
1111111101000010
111000
1111111111110010
111
110100
1111111111011111
1100011
1111111101100011
1111111001001100
1111101111010111
1111111110001110
1111101010010111
1111011011001011
1111111000101100
1111110100010100
11011100
101111110
10000100010
1111110110011000
10001110001
1111111000101010
1001001011
10001101100
1101000100
1101010111
1011001011
1111111111100000
10000011
1111111111111010
100
100010
1111111111010000
1111111111011011
10000
110100000
10011001
10010
1111110000111101
1111101111110111
1111111111001110
1111110001010000
10100110001
10011010001
10101110010
10000001011
101011111
1111110111110001
1111111000
1011000
10111010110
10110010100
10001111010
10000010011
1001100000
101100011
101101101
10001110
1111111110111010
1111111111011001
1111111111101000
1101
10100
10010101
1111111101000110
1111111001001011
1111101101000010
1111110111010000
1111101111100111
10001
1111110101100100
1111110011101011
1111111010101001
110111010
10100101101
1000100100
10010101101
10111011
10110111110
1110111101
101110001
100010100
1010000110
11111011
1111101
1000100
111100
110
100110
1
100000
1111111111011000
1111111100000000
1
110001101
1011111010
111111000
1111110000000111
1111110110011110
1111101110011101
1111101010010001
1111111100010000
1111110000101001
1111101110110101
100000000
100111001
0
1111111110110111
1111111001101111
1111111010100111
11000011
110111
1111111111100000
1111111111001001
1111111111000001
0
111
1111111111010110
1111111111101010
1111111111011000
101010111
111010000
1111111111010000
1111110111000100
1111110011110001
1111101111001110
1000110000
1110001000
101000000
1010100
1111110100110110
1010110
1111111011010011
1111110001110111
1111101110111110
1111110000110000
1111110110101101
1111110110011010
1111111111011000
1111111111011100
10010
1111111111000011
10010
1111111111111011
100101
1101
10101
10111
110
1111111111000001
1111111111100111
1111111100101001
1111111110010011
1111111110110100
1111111101011000
1111111111010010
1111111110110000
1111111101001111
1111111101111101
10110111
1111111100101110
1111111101110010
1111111111111000
1111111110000101
1111111011101111
1111111110111000
1111111111110111
101
10001
1111111111110110
10010
1111111111100001
