101001
1111111111111111
1111111111100101
1111111110111011
1111111111100100
10010
1111111111111000
110011
1111111111001011
1111111111100000
10100
1111111111100111
1111111111010111
1011
11101
10101
1111111111011101
1111111111110101
1000
1111111111111110
11000
1111
1001111
101111
1010
1111111110111111
101
110000
1111111111101100
1111111111110111
101
1111111111111111
1111111111111011
1111111111000110
1111111101100011
1111111100111010
1111111001001010
1111111101111010
1111111101111000
1111111110100000
1111111101000001
1111111101100001
1111111111111111
1111111110010101
1111111101100101
1111111110110111
1111111111001001
1111111110001010
1111111111100101
1111111110010100
1111111101101100
1111111111010010
100111
100
100110
1111111111111111
11
1111111111100101
110011
10011
1111111111110001
1001
1111111100001100
1111111000001100
1111110010110100
1111110011001101
1111110100010001
1111110100101110
1111101011100000
1111110111111001
1111110110101001
1111110110111000
1111110011001111
1111110110001111
1111110010001100
1111110110111011
1111111101010011
1111111110010011
1111111011001101
1111111110101000
11100
111010
1010
1
110110
101111
11
1111111111000111
1010
11
1111110101010101
1111110011011100
1111110000010000
1111100111111111
1111101111011101
1111101111100100
1111111101111111
1111101101001010
1111110101000011
1111101110000111
1111110000100011
1111110110011011
1111101101000011
1111110110110100
111110001
1111111110110010
11001010
10111100
11111
1101
100101
1111111111110000
1111111111010100
1111111111101011
1111111111011011
0
101110
1000000111
1111111110001001
1111111101011101
10000001110
1000111
1111110111110010
111101001
101110001
111
1111101011100110
1111110000101111
1111110100010100
1111111101011000
1111111111101011
1111110011101011
1111111001110010
1111111100011011
1000100101
1001000110
101010001
10111
1
1111111111011000
1111111111110011
0
10011
1110000
1010110111
10010010101
1111111111100101
1001100101
1010001101
1111111110000011
1111101101001000
1111111010110000
101011000
1111110011011010
1111111010001000
1111110101111100
1111100000110001
1111011001000000
1111110000000000
10111011
100011010
101100011
1000101111
1010000000
110010100
11101010
1001
11100
11010
100001
1011001
101110010
10000110010
1101011011
1101011
1111110101100110
1111110110111111
10000110110
10010001
1111110010010101
10001010101
1100000
1111110011010010
1111111111011110
1111110011000010
1111110000001101
1111110111101001
1111111000110011
10110011000
10111011100
10001100101
1101110001
11001011
1011101
111
111
10001
1111111111010000
1010
1101110000
10110100010
1000110000
1111111100000000
1111110101011001
10010111
11000111
1111101111011100
1111111001110000
1111110011010101
101001001
1111111101011011
100110100
10001000
11100101011
100111111011
100111011011
111010111100
110010001000
101011000000
11010111000
100101110
10010101
10001001
110011
1111111111100100
1111111110111100
1011010
1010111000
10110011111
10111000
1111110010110110
1111110011001100
111001111
110111
101110
11100000
11110000
10011001010
111011110110
1000100101110
1010000101101
1011010101111
1010001010101
1000001100101
111111010110
111000101110
101010111101
11011100011
1111000010
1010111010
100100010
1101001
1111111111110101
1001
1100100
1100101101
1110000100
1111011000
10111010
1111110100001100
1111110100100010
1111110001011011
1000101101
111110110
1111111111111000
101001000001
100011011101
101000000010
110011101011
110011000110
101001010001
101000000111
10110101000
101010110101
11001111111
10100101100
101110110
101001111
10101001
10010
100100
1111111111110111
10000111
1001101110
10101010110
11011010
100000110
1111111110011110
1111111000111100
1111111000101110
1111111111001110
1111110011010000
101
1101
10100010000
10111001
1111101101110111
1111111011101110
101101011
1000000001
1111111010111110
1001011101
10101001001
1111111111100110
1111110000010111
1111111101000101
100100
100000
101111
10
110010
1111100111
11100101011
1000110111
1111111111100100
1101011101
100011010
1111111100110000
10010101101
1111111101011010
1111111011100010
100000
11001010
111101110
1111010001011101
1111100111110110
1111101101111011
1111110001100000
1111101110111100
1111111000010100
100110
1111100111101001
1111100010110100
1111111110000011
11101
1101000
101010
1111111111110010
11011001
1111111101
11101011100
11000000111
1111111001110110
110
1010111100
1111111010111011
1111111111111110
1111101001000011
1111111100000101
10100011100
10100111110
10000011
1111110000001010
1111101011101100
1111100101000100
101010010
1111111010010110
1111111101000010
100011100
1111110010111111
1111110011010001
1111111111110011
100011000
11110
101000
1111111111110100
101111001
1010101001
11110000101
10101000101
1111111101011110
1111111001110100
1111111100011111
1000101001
1111110100110100
1111101110111100
10100110000
10110000110
1111111110111100
1001001010
1110001
10010010
1111111101000110
111001000
110001111
1111111000101110
1000
1111110111110101
1111110101010100
10011101
101011010
1101
11001
1001
1000100
10111001
10000001010
10100001011
10101010
1110111
110111110
1111111011011101
1111110110000100
1111110001001010
10111011000
1101011100
1111110101101000
1111101010000101
1111111010100010
1111101101001111
1111101011101010
10010100001
1111101100000011
1111110010011011
1111110100010100
1111110101101101
1111101011110100
1111111100101101
10000000
1111111111111101
101000
110000
101110
11001101
110101001
1100011110
1101
11010101
111110100
10001011
1111111000100000
110000101
1101111100
1111100110
1001111111
1111111111010001
1111111011101001
100110010
1111101101100001
10001101
1111110100111111
1111110111000110
1001001101
1111110011111110
1111110110010100
1111111001001111
100110101
1111111111101111
1111111111101110
101110
111011
10111001
1110110110
10100111110
110110
11110001
1010011101
1111111100101101
1111111000100110
1111111000101101
11100010
1001011011
1111110011111000
101101010
1000001011
100000001
10111010
1111110110111110
1111111000100000
1001011010
101011010
1111110000010011
1111111001011100
1111110100011110
111000010
110101
1001
1111111111110011
1111111
11011111
10000011000
1111001010
1010110
1111111010100010
1111110111011001
10100000001
10100010100
1111111101010001
111110111
1111110111011001
1111110101110000
11001000010
100010111110
1111111101011110
1111111011011011
1111111001000100
1111100100000000
1111101101101001
1111111101001011
1111110011100010
1111111100001100
1111111011011000
100010100
1111111111011000
1111111111111101
1111111111101111
10111
101001011
1111111000011010
1111111110111111
1111111000011111
1111101110100010
11000001
11000101
1111110111001010
1110101001
1111111100011000
1111110001011111
1111101111110100
1010111110
10010010000
1111111100011000
1111111010110001
1011010110
1111111100110101
1111110100001000
110001101
1111111001000011
111111
1111111101111011
10011011
10010001
1111111111011110
111100
1111111110000000
1111111101010101
1111101111110110
1111111011010111
111111100
1111111000000111
1111110110001011
101011100
1111110001111011
1111100101011111
1111111001100101
1111110101010111
1111111001000101
1111111100100010
11
10011001000
101011011
1001010111
100011000
100010111
101110111
11101001
1111111011111101
100111000
100000
11000
1111111111110101
1100
1111111100111110
1111111011101101
1111110011001100
1111110011010100
111
1110010100
1111111101000001
1111101000010000
1111110011100000
1111111110100010
1111111010101101
1111111100100111
1111110011111000
1111110110110000
1111110110101111
1000001001
11110011
10000011000
10010110111
1111111111000111
110010001
10011010
1111111101101001
10000
1
100010
101011
111
1111111111110011
1101111
1111111111110100
1111110010010000
1111111111011001
1111110111001110
1111111001111100
1111110111100011
1111101011011110
1111110010010001
1010111
11010001
1111101000101010
1111110001101100
1010001000
1100100
1111110100010000
1000111100
1111110101000011
100101010
110111001
11110010
110000111
0
11
111000
1111111111110000
1111111111110010
1111111111000110
1111111111111110
1111101
1111110111100100
1110100
101101010
1010001110
111111011
1111110001111101
1111101100001011
11000010101
100001110
1111110010101010
1111111010000101
111010110
1111111101100001
100011111
1111111111001001
11101100
11100000010
1110011010
1011000111
1001001001
1010011
100000
1111111111100000
11011
1000
1111111111101111
10101
1001
1111111101000111
1111111111001111
1111111100111110
1111110101111000
110110010
1111111101100101
10001111
1000010
10011011
1111101111010110
1111111111001001
1010011011
10000100110
10010101110
1000101100
1111111100001001
1001110111
10011011
100010
1111111101111011
1111111111110101
10001
1111111111100011
1111111111011011
1111111111011110
1111111111101011
1001000
111000
1101101
1111111111100010
1111111010111111
1111110111000100
1111101110000011
1111101111010011
1111111111100011
1111110011101011
10100000
11011100
1111111101100011
1111111001100010
11000010
1111011001
100001111
1111111111101011
1011011000
1010110
1111111111011010
1111111111001001
1111111111101111
1111111111110110
11010
1
1111111111101100
1111111111101000
1111111111100001
1010100
1111111111001110
111
10100
1000001
11101110
10001010
100100101
1100001001
10000010100
1101011001
10000101
11010111
101011000
101110000
110011000
11111010
1011110110
110010
1111111111110001
1011
1111111111110011
1111111111110111
111
101001
1111111111110101
10
11
1111111111010100
1011
10010
101111
100111
1110
100101
1111111111011011
101001111
101000100
1100101011
1101011100
1100011011
101100101
10001100
11010100
11000101
1101011000
101010100
111010
1111111110110011
1111111111100110
11
1111111111001111
1111111111110111
1111111111000101
1111111110111100
101101
1011
10001
10
11011
1010
1111111111011010
101010
1111111111010101
0
100010
11101010
101000001
1111111111111110
1111111111110000
110100
101100
110100
1010011001
110000010
1111111111100011
1111111111100011
10110
100011
1111111111011100
