11
1111111111010010
1010
1111111111111101
1111111111100111
1011
1111111111111100
0
10110
100000
1111111111110111
1111111111101101
1111111111110000
1111111111100000
10100
101100
10011
110001
1110
1111111111110100
11000
1111111111001101
10000
110110
1111111111010100
1111111111110001
1111111111111101
0
1000001
100000
1111111111111000
1100
101101
110011
1111111111011100
1111111110101001
1111111110100001
1000
1111111111100000
1111111110100111
1111111111000110
1111111110101111
111000
11001
1111111111110111
1111111111101110
101111
0
1111111111001100
1111111111111001
1111111111010000
1111111111000011
1101
1111111111110010
1111111111011010
11000
111000
10110
1001
1111111111101110
1111111110110001
1111111111010111
1111111111010011
1111111110110101
1111111110000110
1111111111101101
1111111101101001
1111111101111111
1111111110010101
1111111011111001
1111111101101010
1111111010110100
1111111010000101
1111111011110110
1111111011100010
1111111100111001
1111111110111100
1111111111000000
1111111111110101
1000111
1111111111010110
1111111111011111
11000
1010000
1111111111101101
1111111111100111
101011
11001
11111
1111111111100010
1111111110011010
1111111011101101
1111110011011111
1111111011011010
1111111010100110
1111110001011011
1111101100100011
1111110011101100
1010
1111111001111110
1111110111100101
1111111110011100
111
1111111100010001
1111111001011001
1111111110100001
1111111111110001
1010
10
111111
10000
101111
1000
10111
1111111111111011
10000
1111111111001111
100100
1111111100000111
1111110001111010
1111110110101110
1111111001111000
1111111010110000
1111110000101010
1111101010101111
1111111011100110
1111110110101100
1111110000011111
1001
1111111001110010
1111110001001001
1111111001100011
1111111000101010
1111111110111010
1111111100101000
100110
10100001
1101000
1111111111111111
1111111111001100
1111111111100010
1111111111100010
1111111111100111
1111111111011111
111010
101101011
100110
1111111011111111
1111111101100111
1111101111010001
1111110000000011
1111110110000101
101111010
1001000111
1010010010
1010110111
11001001
1111111110010101
1111100111000101
1111100110110111
1111101000101111
1111110101100110
1111111000100101
1111111101110001
10001100
1001
0
1111111111111001
1111111111110110
1111111111010001
10011
110110
1111111010110010
1111111100111001
1111111011110111
1111101110110001
1111110110011111
111000011
11111101
1111111101010000
1111110111100000
1111101011101010
1111111000101000
1111111010010010
1111111000001100
1111111001000000
1111110011100101
1111110110111111
1111101110110100
1111110100100001
1111110011101100
110001111
110011110
1101010
1111111111101011
1111111111011011
111010
1111111111111000
1000111
1110010
1111110101000101
1111101110100011
1111111100110001
111001000
1111110101100001
1100100001
110101011
1111111011001001
100
1111111111000111
1
1111111101110100
1111111110110000
1111110111000010
1111110000100010
1111110000100111
1111110101111011
1111101111001010
1111111000101010
1110001111
1010100110
1111111010011100
1111111111110101
1111111111111100
1111111111111010
1011010
1111001
11000001
1111111101001000
1111110101111000
11010011
1100000
110100110
1111111101101010
1111111100000101
1111110001010110
1110010
101101011
1000010101
100001
1111101010111001
1111100111101001
1111110101101011
1111101011101000
100101100
1111110011011010
1111111001010100
11011011011
10001000110
1111111111011100
1101
1111111111111101
1111111110101110
1000000
1111111111110010
11011100
1101
1001111100
1111111110110101
1111111001111100
1111111111
1111110111001110
1111110000100101
1111111110001111
1111111000100011
10110011111
1111011011
1010000001
1001000
1111100101101111
1111110001101111
1111110101101110
10001001
111011100
1010001
10010100111
110010100
1111111100011110
1111111110011100
1111111111111001
10101
1111111111101111
10001100
1111111110100111
1000000000
101111011
11110010
1000000010
10010000010
1111111111111010
11100101
1111111000110001
1011101001
11000001100
100101001
1111111010111100
1111111001001011
1111111010000011
1111110001101110
100110
1111111010100100
1111110111111000
1111111110010110
10101011101
101011
1111111001100011
1111111100110101
1111111110111011
1111111111111111
11110
1010000011
1111101001
11101111110
10111010111
1111111101101001
1111110111110000
1111101111011100
1010101001
100101100
10010100101
1000111100
10100011
1111110000111101
1111111110000011
10010000
1111101111110101
1111101010100011
1001000100
100000111
1111110110000011
1101101
10010011
1111101111000001
1111110011001000
0
100111
110110
11001
110011111
10100100000
10011111111
10111000110
1111110101111010
1101100111
10000001101
1111010111
11100001
1111111011111000
110100111
1111110011110101
1111101010110100
1111110101010100
10111100101
1111110001001000
1010100010
111100100
1111110101110001
1111111000110000
10000101010
1111101110100110
100010100
10100001
10010001
1111
1111111111100001
111010
111000011
1011100101
1111101100
1110011000
1101010110
1111110010001100
110101
10011110100
11010001
1011001100
1111111101001010
1111011000100001
1111111001111101
1111111101011101
1111101011010000
10101110
111110010
11000100
1100011100
1101101110
10010100100
11100011
10010111
11000110
10110100
1111111111111001
10001
11101
10001010
11000100
1111111000011010
110000110
1000000110
1111101110011000
1111111101101110
1111111101001001
1111110001011001
1111110011111011
1111011010101001
1111011101011001
10001001000
1111111010000100
1111110010100010
1000101111
10100100000
1100011
1111111110010100
1111111111011101
1111111110000110
10110001011
1111110110110111
1111111110111001
1111111111111000
110100
10011
1110
111001
1101111
1111110000000111
1001000
1100010010
1101100111
1111110110000111
111001010
1111111101100011
1111001100111111
1111001000100110
1111110100011110
10111011011
110101010
1111110001100011
101000001
1111111111000111
1111111011111001
1111111100011000
1111100111000010
1111111011111110
1111111000011101
1111110110000101
1111111111010111
10000000
1111111111100100
1111111111111010
1111111111110101
111010
11
10010000
1010101101
10010000101
11001100000
1111100010
101000011
1111101111000111
1110110101011111
1111010011011001
1111111100100110
10111110010
111011100
1010110000
1111101111110010
1111110110101110
1111110101101101
1111111100010010
1111111000111100
1111110110100011
1111110110011100
1111111111110000
1111111111011011
11010011
1111111111110010
11000
1111111111011011
10011
1111111110110011
110101111
100000111
1101001
1111101011101001
1111110100011001
1111011110100100
1110111101101011
1110110001100010
1111110001111010
100100000000
1101010011
1110011
1111111110000101
101100010
1111111001001110
1111110111000110
10011
1111100
1111111110101010
1111110001011100
1111111111100001
1111010
10111
1111111111110100
1111111111111111
1111111111101011
1111111111010110
1111111011101110
110010010
1111110100110011
1111110010010001
1111100010110011
1111100011110100
1111000110111111
1110100010111011
1111001110010011
11011101111
100100111001
1101000001
1110010000
1111111011000000
1000000110
10101101111
11011011
101101001
11110110
1111111000010100
1111101011111001
1101000
111000
111101
1001100
110
1000
1111111111101111
1111111010100111
10110000
1111101111110010
1111110000010010
1111011111000011
1111010111000000
1111000101111111
1111000110111011
1111111001111110
100000101011
101110010100
1010001110
10011011000
1111111011011000
1100100001
1011001001
110010001
1100010010
1111111100110101
1111101001011000
1111110100000000
1100000
1111111110111111
10111
10000100
110110
100101
1111111110110111
1111111100001010
1111111001010111
1111101011111010
1111101100100100
1111100010010001
1111010100010001
1111011100000010
1111110010111001
101011011
110011111101
101000111010
10011111011
1101110010
1000011100
11001111110
1101010001
1111101011111111
111001
1111111100100000
1111101111110111
1111110101100001
1001000110
100010
1111111111101100
1111111111011110
1111111111010110
1111111111111110
1111111111111011
1111111100010001
1111111000001110
1111101100011010
1111101011010111
1111011011001011
1111110001101011
1111111010110000
1100100000
1111110001101110
1111111100000111
11001111011
11100001100
11101110011
101100000
10111000111
1101011111
1111111101110111
1111111111100110
1010011001
1111110001010110
1111111100110010
101110110
11010110
1111111111001000
111
111100
1111111111011000
1111111111001011
1111111100001101
1111111001000001
1111110101010101
1111110001111101
1111110111011110
1111111110000010
1111111101111110
1111101110101000
1111110000001010
1111101111010011
1001101101
11000000100
1111001001
101011011
10011011111
1110011101
10000001110
1111111110000110
101100
1111101011010011
0
10011110
10000000
1111111111111111
1110
1111111111111001
11001
1111111111110011
1111111110000011
1111111011011110
1111110111010100
1111111100101101
1111111011000101
1111100011010000
110110101
1111111000001100
1111101010101001
110100101
10001001011
1111111001000111
110011011
1111001000
10011100100
1110001001
1111000010
1111111101100110
1111111111100000
1111111001000011
11101
0
111001
1110
1111111111010010
1111111111000111
1111111111011101
1111111111010101
1111111111010011
1111111100110011
1111111010100101
11001101
1111111000110010
1111111001110101
1111111110101110
1111101010101111
1111110010101011
1111101111000001
1111111100011001
1111111011100001
10001010
11101101
100111110
10111000001
1000001101
1111110111101110
101001101
110111001
1001001
10001000
110111
1111111111000111
10010
1111111110111100
1111111111101111
10011
1111111111010000
1111111110100010
1111111101010110
10010110
1111111110010011
1111111101111100
1111111100010011
1111100111111110
1111100110010000
1111111010011000
1111111011110011
1001101110
1111111111010010
10110110
101110110
10001011111
11000
1111111001100111
1111111110001101
10011100
100
10
1111111111101110
1111111110100011
1111111111111001
101
10101
10
100000
1111111101001101
1111111010010011
1111111101011011
1100101
1111111111001100
10110101
1111111110100101
1111110100010011
1111110110101101
1111110011001010
1111101100111111
1111111001100111
100000110
1111000
1010000010
10001110
1111111011100111
100000
1001110
10101
1111111111111010
11001
1100
1111111111101100
111
1111111111100010
10001
1111111111101000
10001
1111111111101001
10001
1011010
1000101
111011
100110010
1111111101011100
1111111101000011
1111001
1011
1111111101110101
10001001
10100
1111111110010001
1010010
1011101
11001001
1001111
1111111111100100
1111111111001011
10011
1111111111101111
1111111111101011
