1101111100
1000101010101
1110111000111010
1111000000101010
110001101011
10011000100
1111100010111000
110001010111
101000001011
110101111101
1111011110101001
101001101011
1111100010100011
1111000011110001
11010001011
1111000001100100
100000111011
100011010101
1110111010111110
1111100110101010
11001000000
100001110100
100100011110
1111010100011001
1000100101110
1010111010000
10110111011
1111010011010100
1111110011101110
1111100001000100
