1111010001110001
1101101110
1111101010000000
111011101011
1101110010100101
10000001111
1111010011011101
100000100011
1111011110001110
1111000011011000
1110001111011101
1111010111101010
101011010110
101111111111
110011111010
101110110001
1010001111110
1110101010001001
1111010001100000
1111101101100010
1110011110001110
1110011100000111
1110110110100100
1111101011001010
1000111011110
100001101010
1010001001
1110110111000100
101111011010
1010011100001
