1011100111011
1010100000000
1111010110011000
1110111001110010
110111110010
100011000010
1111001001011001
110101110111
1110111001010010
1111100001001100
1110101111011010
10000010110
10110011000
1001000001
10101100
1111001011010100
111001000001
100100010010
110001101100
1111100101111100
1110001
110100
110010110101
1111001100010110
1110110010110000
1001111010
110000111
10000010111
1110110111001011
1000001011
