1111111110000111
1111101101000000
1010110000111
1111111010110101
1110110100100010
1111000011010001
101001101011
1111001000001100
1111111110111100
1010100100000
101011000110
1111100000001
1110111001001101
1111010110010000
10101011001
10101110101
1111110001100000
1111101111111100
10010001001001
11110010000
11100011001
1111011000110000
1000110000
11001010101
10111011110
1110000111001001
1110111101011011
1111110010101111
10001101001010
1011001001110
