10101110011
1111010101110110
1010011100110
1101000111101
1111101010100001
1110110111110101
1110110100
1111000101011010
1110100011001111
110001010
10000000010101
1000110110110
100001001111
1110111100110111
11100101
1000100110
10010010
1111011011010110
1111110100000100
101110010010
1111110010001110
1111000001111110
1110111100100011
10100001101100
1110101001101000
1110110110010010
1110100011001101
1111111001110
1110011101010011
1111111010001010
