101101010
1011100001
1111111111000000
11100001
1110101000110010
110001010101
1000110001000
1011101010011
1111100011101100
100001100000
1011010011101
100010100000
1110010111001011
1111111111100101
1111001100011111
11101001100
101100010010
100001010
1111101111000010
10001001011000
100111100101
100001111
1111000001100100
1111110001000011
1101100100110010
1110110010100110
100100000111
1101110110001101
1111100101001011
1011110100111
